<pad>	0
<EOS>	0
<unk>	0
▁the	-3.30695
,	-3.44058
.	-3.45726
s	-3.61509
▁to	-3.8853
▁a	-4.01914
▁of	-4.05936
▁and	-4.07848
▁in	-4.17748
▁.	-4.1849
'	-4.40894
▁was	-4.91886
-	-4.93709
▁for	-4.96446
▁'	-5.00085
▁that	-5.01673
▁on	-5.04323
▁is	-5.07097
▁with	-5.25525
▁The	-5.26183
:	-5.28775
▁said	-5.3409
▁he	-5.40185
▁his	-5.42423
▁"	-5.4631
▁it	-5.4676
▁at	-5.47117
▁as	-5.60594
t	-5.61873
▁have	-5.63524
▁from	-5.64073
▁be	-5.64991
▁has	-5.68463
▁by	-5.69117
ing	-5.71051
▁her	-5.74252
ed	-5.76658
▁I	-5.76903
▁are	-5.80815
’	-5.8549
▁who	-5.92454
▁an	-5.95081
▁had	-5.97694
▁not	-5.99655
▁been	-6.07339
▁were	-6.07955
▁she	-6.08433
▁they	-6.09512
▁their	-6.10811
▁after	-6.13507
▁but	-6.14837
d	-6.1662
▁will	-6.19803
▁this	-6.20406
▁‘	-6.30197
▁A	-6.36183
▁which	-6.40934
▁(	-6.41631
▁out	-6.42031
▁up	-6.44008
▁one	-6.46828
)	-6.49463
▁	-6.50187
▁He	-6.50332
▁when	-6.51195
▁about	-6.51502
▁more	-6.54205
▁we	-6.5638
▁-	-6.56399
▁or	-6.56466
I	-6.57498
ly	-6.58802
▁you	-6.59043
er	-6.60189
▁would	-6.60482
y	-6.60516
▁can	-6.62454
▁also	-6.63032
▁people	-6.6693
▁him	-6.71483
▁two	-6.71961
,"	-6.72716
▁all	-6.76635
▁over	-6.76915
▁S	-6.77251
m	-6.78245
▁into	-6.78431
▁time	-6.81429
▁than	-6.82604
▁--	-6.83921
▁told	-6.85051
▁It	-6.85384
▁so	-6.86012
re	-6.87009
a	-6.87036
e	-6.88198
▁last	-6.88456
▁just	-6.88827
▁first	-6.91051
▁years	-6.91333
▁year	-6.94263
▁In	-6.94559
▁could	-6.96016
▁there	-6.96424
▁But	-6.97459
▁them	-6.98337
▁Mr	-6.99094
▁before	-7.03223
▁no	-7.046
▁what	-7.06634
▁other	-7.07331
▁being	-7.0757
▁my	-7.08667
▁home	-7.0931
▁like	-7.10014
▁down	-7.10789
▁now	-7.11001
▁its	-7.11498
▁new	-7.12113
"	-7.12251
year	-7.14537
▁back	-7.15048
old	-7.15348
▁says	-7.16651
▁do	-7.17235
n	-7.18538
▁police	-7.19754
▁U	-7.2039
▁She	-7.20451
▁if	-7.20704
▁some	-7.22523
▁where	-7.22644
▁because	-7.23464
▁three	-7.25166
▁me	-7.28636
▁only	-7.28859
▁found	-7.29416
▁get	-7.31298
▁family	-7.31522
▁off	-7.3181
▁made	-7.3216
al	-7.32198
The	-7.32879
in	-7.33377
?	-7.33592
r	-7.34463
▁against	-7.36443
▁while	-7.36635
▁during	-7.37888
ve	-7.39053
▁our	-7.39427
es	-7.41312
▁’	-7.42583
o	-7.4356
th	-7.43771
▁day	-7.45283
▁most	-7.45441
▁then	-7.45687
▁how	-7.45916
We	-7.46482
▁left	-7.4729
▁New	-7.47378
▁make	-7.47578
▁say	-7.49522
▁life	-7.50595
▁very	-7.51774
▁man	-7.52115
▁around	-7.52603
It	-7.54313
▁any	-7.54571
▁through	-7.55194
▁take	-7.56935
▁children	-7.57314
▁world	-7.57844
▁way	-7.59008
▁week	-7.59828
▁since	-7.61274
▁did	-7.61821
▁work	-7.61945
▁many	-7.62043
▁even	-7.62926
▁go	-7.6395
▁well	-7.6507
▁still	-7.66004
i	-7.67319
▁going	-7.68148
▁those	-7.68477
▁under	-7.69808
▁right	-7.7073
▁see	-7.70884
▁per	-7.71019
ers	-7.71047
▁think	-7.7231
▁They	-7.7247
▁four	-7.72474
▁team	-7.73656
▁know	-7.74001
▁your	-7.74703
on	-7.74783
▁should	-7.74793
▁United	-7.75445
▁country	-7.75969
▁EST	-7.76236
▁don	-7.76526
▁used	-7.76967
man	-7.7705
▁including	-7.77152
▁between	-7.77288
▁part	-7.7729
▁show	-7.78197
▁government	-7.78412
▁former	-7.78512
▁such	-7.78727
▁mother	-7.79219
▁much	-7.79328
▁death	-7.79367
▁–	-7.79389
▁help	-7.79619
▁court	-7.79871
▁And	-7.79961
▁night	-7.80159
▁By	-7.80598
▁video	-7.80625
▁want	-7.81247
▁may	-7.82589
▁re	-7.83007
▁took	-7.84483
▁called	-7.85293
▁car	-7.85421
▁next	-7.8659
▁CNN	-7.86599
ll	-7.86781
▁according	-7.86953
▁women	-7.87313
se	-7.87377
▁own	-7.87872
▁2013	-7.88927
▁five	-7.89652
▁London	-7.89851
▁10	-7.90169
▁later	-7.90704
▁We	-7.90801
▁another	-7.90983
▁good	-7.91395
▁long	-7.9248
▁set	-7.93003
▁never	-7.93225
▁days	-7.93265
▁added	-7.93581
▁school	-7.93835
▁come	-7.94155
▁case	-7.94464
or	-7.95051
▁million	-7.9527
▁seen	-7.95298
▁second	-7.95604
g	-7.9585
▁away	-7.95901
an	-7.96029
▁public	-7.96349
▁months	-7.96376
▁place	-7.97013
▁put	-7.9704
▁group	-7.97358
▁us	-7.97521
▁both	-7.97559
▁same	-7.98184
▁cent	-7.98602
▁This	-7.98674
▁state	-7.98771
▁got	-7.98912
▁came	-7.99203
▁report	-7.99976
▁high	-8.00013
▁Obama	-8.00844
▁taken	-8.01167
▁went	-8.01229
S	-8.0171
▁today	-8.01762
▁these	-8.01895
A	-8.02152
c	-8.03456
▁head	-8.035
▁men	-8.03576
▁Police	-8.04023
▁1	-8.043
▁need	-8.04898
▁month	-8.05007
▁5	-8.05303
en	-8.05655
▁died	-8.05683
▁E	-8.06028
▁end	-8.06347
▁un	-8.06661
▁woman	-8.07079
p	-8.07549
▁use	-8.07831
▁really	-8.09401
▁house	-8.09854
▁2	-8.10602
▁de	-8.10824
▁killed	-8.10951
▁father	-8.1105
▁top	-8.1116
C	-8.11543
▁didn	-8.11662
▁wife	-8.11691
▁six	-8.12088
to	-8.12095
▁number	-8.1281
k	-8.12957
▁son	-8.13382
▁O	-8.13519
▁York	-8.13559
;	-8.13658
le	-8.14354
▁2012	-8.14578
▁face	-8.14866
▁too	-8.14967
▁best	-8.15579
▁game	-8.15659
▁England	-8.15804
l	-8.16185
▁World	-8.16187
▁season	-8.17325
▁British	-8.17361
▁side	-8.18442
▁young	-8.18577
▁money	-8.18962
▁look	-8.19194
CNN	-8.19333
▁every	-8.19618
ton	-8.20234
▁C	-8.20425
up	-8.20533
▁body	-8.20611
▁20	-8.20957
it	-8.21069
▁P	-8.2117
▁hospital	-8.21807
▁support	-8.21815
▁Sunday	-8.22686
▁thought	-8.22745
▁President	-8.23
He	-8.23107
▁until	-8.2312
am	-8.2321
P	-8.23623
▁child	-8.23808
h	-8.24216
▁3	-8.24338
▁without	-8.24543
▁One	-8.24822
▁attack	-8.24909
▁won	-8.25467
▁reported	-8.25666
▁company	-8.25689
▁ago	-8.2578
ar	-8.25782
▁here	-8.25893
!	-8.26337
able	-8.26378
▁having	-8.26429
▁4	-8.26515
▁South	-8.26939
▁12	-8.26941
▁Monday	-8.27092
▁water	-8.27139
▁saying	-8.27342
▁hours	-8.27485
▁play	-8.27646
▁City	-8.27665
▁daughter	-8.27978
▁city	-8.28232
▁UK	-8.28329
▁following	-8.29989
▁across	-8.30176
▁Tuesday	-8.3018
5	-8.30261
▁few	-8.30295
▁David	-8.30379
▁asked	-8.30548
▁Friday	-8.30599
▁D	-8.30683
▁near	-8.30825
▁find	-8.30831
f	-8.31218
▁statement	-8.31233
▁known	-8.31242
ion	-8.31749
▁past	-8.31777
▁As	-8.31924
▁win	-8.31997
▁officials	-8.32331
▁each	-8.32337
▁little	-8.32773
ry	-8.32835
▁something	-8.33075
▁couple	-8.33087
ic	-8.3325
▁There	-8.33727
▁again	-8.33749
▁American	-8.33756
▁given	-8.34367
▁F	-8.34776
▁area	-8.35198
▁John	-8.35228
▁hit	-8.35455
▁club	-8.35673
▁already	-8.35902
▁lot	-8.35942
▁able	-8.35947
▁believe	-8.35966
▁far	-8.36062
el	-8.36255
▁Dr	-8.36518
b	-8.36779
▁president	-8.36975
▁An	-8.37341
▁West	-8.37705
de	-8.37708
▁pictured	-8.37859
▁Wednesday	-8.38002
▁Cup	-8.38415
▁G	-8.38489
▁shot	-8.38648
la	-8.38825
▁parents	-8.39163
▁outside	-8.39221
▁League	-8.39367
▁law	-8.39488
▁B	-8.39508
▁health	-8.39574
▁Al	-8.39641
▁His	-8.3974
▁military	-8.39771
▁working	-8.39838
▁half	-8.40314
▁always	-8.40716
▁Saturday	-8.40726
▁become	-8.40809
▁6	-8.40897
▁On	-8.40923
▁At	-8.41359
▁local	-8.41409
▁great	-8.41524
▁friends	-8.41822
▁taking	-8.42242
D	-8.42392
▁give	-8.42457
▁11	-8.4248
▁When	-8.42624
▁p	-8.42772
▁started	-8.42857
▁times	-8.42927
z	-8.42952
▁7	-8.4305
▁W	-8.43094
▁early	-8.43105
ri	-8.43173
▁Thursday	-8.43332
▁18	-8.43603
▁behind	-8.43662
B	-8.43673
▁19	-8.43865
▁N	-8.43958
▁UPDATED	-8.4425
▁members	-8.44381
▁pay	-8.44419
▁K	-8.44431
▁co	-8.447
ne	-8.44731
ra	-8.45013
▁move	-8.45061
▁whether	-8.45065
▁care	-8.45074
▁May	-8.45166
the	-8.45272
▁final	-8.45636
▁using	-8.4568
▁St	-8.45727
▁No	-8.45737
▁15	-8.4583
ur	-8.45939
▁security	-8.45944
▁House	-8.4609
na	-8.46183
▁lost	-8.46264
▁heard	-8.46399
▁After	-8.46541
ive	-8.46612
▁start	-8.46756
▁|	-8.46824
▁making	-8.46873
▁released	-8.46961
ation	-8.47134
▁several	-8.4715
▁husband	-8.47249
▁30	-8.47275
▁weeks	-8.47499
▁campaign	-8.47562
▁least	-8.47631
▁North	-8.47823
▁PUBLISHED	-8.47923
il	-8.47968
▁That	-8.48006
▁close	-8.48144
▁person	-8.48218
▁big	-8.48252
▁run	-8.48309
▁wanted	-8.4834
▁claims	-8.48412
▁Ms	-8.48575
▁fire	-8.48654
F	-8.48852
▁Re	-8.49029
st	-8.49669
▁front	-8.49706
▁party	-8.49929
▁might	-8.50011
as	-8.50367
▁arrested	-8.50418
te	-8.50752
ling	-8.51002
▁spokesman	-8.51285
▁trying	-8.5133
▁Britain	-8.51426
▁T	-8.51439
▁saw	-8.51489
▁media	-8.51685
w	-8.5183
▁Court	-8.51832
▁ever	-8.51996
▁For	-8.52073
▁So	-8.5246
right	-8.52473
ley	-8.52577
li	-8.52644
▁different	-8.52658
▁better	-8.52804
▁star	-8.52959
▁must	-8.53039
▁Miss	-8.53239
▁keep	-8.53332
▁full	-8.53478
million	-8.5371
This	-8.53969
▁things	-8.54118
R	-8.54284
▁call	-8.54352
▁live	-8.54574
▁name	-8.54591
▁system	-8.54678
▁news	-8.54827
▁Scroll	-8.54835
▁love	-8.5502
ce	-8.5507
ist	-8.552
▁change	-8.55282
▁University	-8.55309
▁decision	-8.55333
▁investigation	-8.55825
▁hard	-8.55987
▁January	-8.56143
▁friend	-8.56192
▁players	-8.5657
▁war	-8.56769
▁himself	-8.57074
▁incident	-8.57126
▁claimed	-8.57145
▁8	-8.57238
G	-8.57511
1	-8.57551
▁dead	-8.5762
▁shows	-8.57765
▁does	-8.57865
▁job	-8.57933
▁earlier	-8.57996
▁De	-8.58031
▁held	-8.58038
ie	-8.58087
▁together	-8.58087
▁States	-8.58286
▁girl	-8.58369
▁Manchester	-8.58757
ity	-8.58805
▁officers	-8.5894
▁food	-8.59087
▁official	-8.59139
▁murder	-8.59239
T	-8.5937
▁feel	-8.59463
▁among	-8.5953
▁less	-8.59597
▁began	-8.5964
▁wrote	-8.59734
ia	-8.59899
▁information	-8.59932
▁staff	-8.60007
ate	-8.60062
▁point	-8.60069
▁La	-8.60285
ta	-8.60399
▁revealed	-8.60567
ment	-8.60606
▁stop	-8.60878
▁minutes	-8.60956
▁looking	-8.6097
▁power	-8.61092
▁phone	-8.61307
▁If	-8.6141
▁morning	-8.61425
u	-8.61488
▁deal	-8.6156
▁expected	-8.61641
▁M	-8.61938
▁air	-8.62261
no	-8.62327
▁am	-8.62578
▁service	-8.62723
▁enough	-8.62838
E	-8.62859
▁authorities	-8.63256
▁hand	-8.63289
▁became	-8.63368
▁clear	-8.63373
▁Mrs	-8.63415
▁However	-8.63466
▁third	-8.63585
▁prison	-8.63724
▁Facebook	-8.63729
2	-8.63947
▁once	-8.64137
ir	-8.64306
son	-8.6461
me	-8.64627
▁sent	-8.64682
▁evidence	-8.64855
▁trial	-8.65092
M	-8.65489
less	-8.65664
▁National	-8.65974
▁Michael	-8.65979
▁September	-8.66045
▁why	-8.66057
left	-8.66116
▁seven	-8.66116
▁black	-8.66148
▁free	-8.66159
▁old	-8.66372
▁13	-8.6644
is	-8.66442
ted	-8.66549
ty	-8.6657
▁done	-8.66633
▁Her	-8.66635
▁business	-8.6666
▁accused	-8.66827
▁social	-8.66847
▁along	-8.66881
▁open	-8.66883
▁recent	-8.66981
ch	-8.67341
▁line	-8.67353
▁March	-8.67462
un	-8.67505
▁State	-8.67509
▁small	-8.67614
▁site	-8.6765
ting	-8.67692
▁getting	-8.67787
▁likely	-8.6826
▁international	-8.68482
▁due	-8.68727
▁October	-8.68861
co	-8.69071
▁December	-8.69096
▁doing	-8.69115
▁Co	-8.69233
▁November	-8.69644
ro	-8.69826
▁almost	-8.70126
),	-8.70195
▁eight	-8.70489
▁room	-8.70792
▁com	-8.7083
▁June	-8.70895
▁thing	-8.71095
4	-8.71104
▁late	-8.7134
▁spent	-8.71663
▁baby	-8.7168
▁August	-8.72077
▁age	-8.72161
▁tried	-8.72248
▁charges	-8.72248
▁national	-8.72257
▁happened	-8.72547
▁office	-8.72617
ma	-8.7267
▁leave	-8.72728
▁16	-8.72832
led	-8.73061
▁m	-8.73136
▁return	-8.73209
▁heart	-8.73512
ul	-8.73549
▁lives	-8.73692
est	-8.73796
▁political	-8.73867
There	-8.74118
▁real	-8.74152
▁inside	-8.74186
ine	-8.74563
lo	-8.74622
▁boy	-8.74666
us	-8.75078
be	-8.75088
▁fans	-8.7563
▁To	-8.75796
▁charged	-8.75974
▁record	-8.7598
▁received	-8.75997
▁comes	-8.75997
▁important	-8.76249
▁China	-8.76321
L	-8.76542
▁though	-8.76639
▁yesterday	-8.76669
▁involved	-8.76735
▁future	-8.76758
▁officer	-8.76783
▁match	-8.76852
▁manager	-8.76927
▁described	-8.77075
▁often	-8.77095
▁sex	-8.77296
▁fact	-8.77309
▁al	-8.77337
▁played	-8.77504
ian	-8.77543
▁gave	-8.77646
▁July	-8.77695
▁believed	-8.77726
▁2011	-8.77765
▁f	-8.77835
▁order	-8.77946
▁online	-8.78153
6	-8.78201
▁led	-8.78301
▁further	-8.78335
▁17	-8.785
▁James	-8.78615
▁April	-8.78641
▁film	-8.7871
▁goal	-8.78849
▁14	-8.78913
▁director	-8.78958
▁lead	-8.78959
ter	-8.79008
▁fight	-8.79111
per	-8.79185
▁yet	-8.79279
▁Minister	-8.79442
▁ground	-8.7948
▁others	-8.79512
▁scene	-8.79556
▁control	-8.79567
▁met	-8.7983
ad	-8.80119
▁legal	-8.80142
▁risk	-8.80206
▁football	-8.80374
▁despite	-8.80411
ni	-8.80445
time	-8.80587
▁action	-8.80682
mo	-8.80839
▁living	-8.81083
3	-8.8116
They	-8.81288
%	-8.81401
▁TV	-8.81496
▁doesn	-8.8159
um	-8.81686
▁L	-8.81722
▁hope	-8.82223
▁community	-8.82546
▁Twitter	-8.82575
▁H	-8.82629
7	-8.82886
▁possible	-8.83118
▁drug	-8.83287
one	-8.83289
▁large	-8.83338
x	-8.83375
out	-8.83595
▁forward	-8.83623
▁America	-8.83632
at	-8.83671
▁leader	-8.8384
▁ex	-8.83849
▁event	-8.84097
▁short	-8.84147
▁R	-8.84219
▁You	-8.84229
▁2014	-8.84512
▁history	-8.84781
▁Department	-8.84787
▁e	-8.84839
▁post	-8.8504
▁within	-8.85121
▁someone	-8.85151
and	-8.85636
▁player	-8.85738
▁50	-8.85781
▁Le	-8.8582
ke	-8.85823
▁All	-8.8588
ary	-8.8628
▁turned	-8.86328
▁try	-8.86429
▁ahead	-8.86747
0	-8.86834
▁building	-8.86899
▁role	-8.87026
et	-8.87063
▁training	-8.87136
▁story	-8.87212
▁admitted	-8.87281
▁major	-8.87355
▁cost	-8.87439
▁Washington	-8.87487
▁Park	-8.87501
▁February	-8.87614
▁town	-8.87906
▁California	-8.87923
ies	-8.87958
▁Mo	-8.87985
ga	-8.88077
▁County	-8.88184
▁appeared	-8.88272
▁Some	-8.8833
▁website	-8.884
▁anything	-8.88459
▁let	-8.88692
▁book	-8.88964
▁human	-8.89084
▁course	-8.89234
▁judge	-8.89318
▁process	-8.89369
ol	-8.8943
8	-8.89663
rs	-8.89935
▁summer	-8.89984
▁White	-8.89986
▁worked	-8.90251
age	-8.90262
▁problem	-8.90284
▁victim	-8.90286
▁chief	-8.90366
▁continue	-8.90469
▁cancer	-8.90809
▁series	-8.90848
ent	-8.90897
/	-8.91191
▁announced	-8.91755
▁European	-8.91868
▁issue	-8.91941
▁Australia	-8.92012
▁Paul	-8.92113
▁race	-8.9222
▁medical	-8.92439
ant	-8.92441
▁reports	-8.92513
▁moment	-8.92568
O	-8.92568
▁kind	-8.92573
▁9	-8.92704
▁Liverpool	-8.92843
ness	-8.92966
▁light	-8.92983
di	-8.93052
▁miles	-8.93104
▁plan	-8.93132
▁guilty	-8.93212
ft	-8.93286
land	-8.93382
▁white	-8.93528
ner	-8.93704
▁coming	-8.93768
▁forced	-8.93769
▁wasn	-8.93856
▁pre	-8.93922
▁nearly	-8.94093
▁treatment	-8.94104
▁countries	-8.94147
▁condition	-8.94219
You	-8.94265
▁According	-8.9427
▁claim	-8.94374
▁While	-8.94432
▁nothing	-8.94569
▁career	-8.9474
▁cut	-8.94778
do	-8.94804
▁plans	-8.94828
K	-8.94848
▁caused	-8.95039
0,000	-8.95051
▁playing	-8.95243
▁recently	-8.95402
▁allegedly	-8.95652
go	-8.95674
▁students	-8.95702
▁study	-8.95754
▁Chelsea	-8.95778
▁interview	-8.95848
▁pair	-8.95856
▁showed	-8.9586
▁stay	-8.95906
pictured	-8.95908
ated	-8.95984
▁Ba	-8.95987
▁sure	-8.9605
If	-8.96068
▁victims	-8.96182
▁list	-8.9622
▁dis	-8.96284
▁France	-8.96342
▁Daily	-8.9665
▁40	-8.96748
▁result	-8.96755
▁bit	-8.96755
,’	-8.96755
N	-8.96951
ful	-8.97066
▁brother	-8.97233
▁2010	-8.97369
▁War	-8.97431
▁ball	-8.97445
▁US	-8.97602
▁visit	-8.97616
▁blood	-8.97826
▁25	-8.9837
▁road	-8.98516
▁George	-8.98629
▁picture	-8.98743
▁French	-8.98806
▁looked	-8.98967
▁decided	-8.99014
▁100	-8.99186
9	-8.99193
▁Na	-8.99241
ca	-8.99263
]	-8.99294
▁paid	-8.99333
▁hearing	-8.99394
▁knew	-8.99639
▁forces	-8.99718
▁News	-8.9976
▁include	-8.99825
▁Man	-8.99901
▁means	-8.99901
▁Mail	-9.00145
▁suffered	-9.00146
▁chance	-9.00171
She	-9.00301
▁What	-9.00357
▁violence	-9.00496
▁brought	-9.00557
line	-9.00652
▁rights	-9.00695
▁special	-9.00864
▁felt	-9.00871
ci	-9.01135
▁member	-9.01175
▁Last	-9.01302
▁failed	-9.01394
▁posted	-9.01453
▁currently	-9.01603
▁dog	-9.01687
▁Di	-9.01702
▁relationship	-9.01741
den	-9.01959
▁problems	-9.02103
▁tell	-9.0254
ally	-9.02619
▁With	-9.02714
▁serious	-9.02868
▁situation	-9.02881
▁moved	-9.02922
▁charge	-9.0308
▁force	-9.0312
▁latest	-9.0319
▁space	-9.03415
▁con	-9.03473
▁alleged	-9.03519
▁—	-9.03536
▁private	-9.0356
▁families	-9.03784
U	-9.03832
▁weekend	-9.03859
W	-9.04068
▁East	-9.0411
▁watch	-9.04236
▁Christmas	-9.04274
▁soon	-9.04338
▁Mark	-9.0442
▁named	-9.04505
▁missing	-9.04572
▁cause	-9.04645
dy	-9.04749
▁Premier	-9.04781
▁red	-9.0482
▁thousands	-9.04877
▁release	-9.04942
▁anti	-9.05117
▁rest	-9.05158
▁break	-9.05291
▁turn	-9.05313
ster	-9.05366
▁property	-9.05501
▁nine	-9.0551
▁similar	-9.0562
im	-9.05703
▁experience	-9.05721
▁Cameron	-9.05744
▁federal	-9.05754
▁plane	-9.05881
▁tax	-9.05976
In	-9.06053
▁remains	-9.06121
▁difficult	-9.06309
▁discovered	-9.06351
▁Do	-9.06362
▁huge	-9.06427
by	-9.06459
ha	-9.06546
▁abuse	-9.06573
▁Syria	-9.06756
▁level	-9.06802
▁running	-9.06923
▁shooting	-9.07059
▁market	-9.07247
▁search	-9.07448
▁gun	-9.07775
▁board	-9.07929
▁bring	-9.08018
▁round	-9.08114
▁sexual	-9.0814
▁King	-9.08198
▁Con	-9.08248
▁flight	-9.08382
▁meeting	-9.08476
off	-9.08477
▁message	-9.08508
▁research	-9.08588
▁games	-9.08601
▁Europe	-9.08628
id	-9.08686
▁Brown	-9.08731
▁killing	-9.08919
▁single	-9.09247
▁everything	-9.0929
ham	-9.09322
▁stand	-9.09354
▁Iraq	-9.09378
▁girls	-9.09424
▁themselves	-9.09441
▁safety	-9.09569
H	-9.09584
▁needed	-9.09633
▁g	-9.09718
▁allowed	-9.09785
▁nation	-9.09835
▁Bo	-9.09836
▁crime	-9.09862
da	-9.09878
▁travel	-9.09943
ous	-9.10011
▁popular	-9.10024
▁idea	-9.1011
▁arrived	-9.10194
▁anyone	-9.10246
▁student	-9.10433
▁leaving	-9.10445
▁hands	-9.10456
▁[	-9.10492
▁happy	-9.10519
▁wrong	-9.10729
▁Now	-9.10821
▁form	-9.10828
▁Two	-9.10901
▁married	-9.11014
▁based	-9.11017
▁Royal	-9.11023
ck	-9.1145
▁BBC	-9.11482
▁image	-9.11627
▁personal	-9.11698
ating	-9.11888
▁San	-9.11933
ge	-9.11954
▁cases	-9.12232
▁key	-9.12463
▁low	-9.12504
▁photo	-9.12636
▁Day	-9.12765
▁helped	-9.1293
of	-9.12976
▁bad	-9.12997
▁attacks	-9.13136
▁Hospital	-9.1324
▁Me	-9.1334
▁Russia	-9.13663
▁workers	-9.13743
▁actually	-9.13859
▁Mar	-9.13927
▁pressure	-9.13979
ish	-9.14079
▁comments	-9.14134
▁read	-9.14291
▁comment	-9.14329
▁driver	-9.14435
way	-9.14668
▁pro	-9.14672
▁hair	-9.14717
po	-9.14752
▁$1	-9.148
▁current	-9.14892
▁strong	-9.15066
▁Be	-9.15183
▁patients	-9.15198
▁Africa	-9.1528
▁centre	-9.15609
▁rather	-9.15722
▁gone	-9.15798
day	-9.16047
V	-9.16211
▁Russian	-9.16248
▁station	-9.16258
▁Martin	-9.16347
But	-9.16379
▁policy	-9.16381
ka	-9.16408
▁injuries	-9.16513
▁21	-9.16666
▁Prime	-9.16696
▁Ra	-9.16758
▁Australian	-9.17196
▁everyone	-9.17197
▁confirmed	-9.17405
▁account	-9.17428
▁International	-9.17437
ler	-9.17616
▁senior	-9.17663
▁billion	-9.17678
▁El	-9.177
▁available	-9.17797
der	-9.17847
▁matter	-9.1787
▁hotel	-9.17944
▁returned	-9.17982
▁talk	-9.18043
▁£1	-9.18074
ti	-9.1808
▁points	-9.18085
▁meet	-9.18118
▁sign	-9.18202
▁capital	-9.18274
▁position	-9.18344
▁Prince	-9.18347
ard	-9.18378
▁worth	-9.18601
▁School	-9.18816
▁ten	-9.18865
sh	-9.19021
▁English	-9.19175
▁en	-9.19219
▁sold	-9.19249
▁access	-9.19252
▁images	-9.19374
▁wants	-9.19398
▁couldn	-9.19414
▁provide	-9.19416
▁Ho	-9.19431
▁trip	-9.1962
▁driving	-9.19757
▁Florida	-9.1976
▁hold	-9.19839
con	-9.19876
▁whole	-9.20005
▁born	-9.20038
▁price	-9.2016
▁cannot	-9.20247
▁makes	-9.20303
▁assault	-9.20633
▁model	-9.20854
▁2009	-9.20869
▁test	-9.20939
▁vote	-9.21019
▁kept	-9.21076
▁longer	-9.21105
lu	-9.21214
▁weight	-9.21338
▁street	-9.2147
▁injured	-9.21483
▁leaders	-9.2161
▁brain	-9.21842
▁sister	-9.21893
▁services	-9.21906
▁J	-9.21991
▁injury	-9.22032
ite	-9.22375
▁b	-9.22385
men	-9.22534
▁caught	-9.22617
▁marriage	-9.22627
▁created	-9.22634
▁Labour	-9.22641
▁wearing	-9.2268
▁leading	-9.22688
▁bar	-9.22873
min	-9.22926
▁land	-9.22936
▁24	-9.22942
▁question	-9.2299
▁Smith	-9.2308
▁remain	-9.23132
▁battle	-9.23218
tic	-9.23239
▁Ta	-9.23331
▁arrest	-9.23447
▁looks	-9.23464
▁Go	-9.23858
▁period	-9.2386
▁Secretary	-9.23864
mp	-9.23881
▁criminal	-9.23882
▁groups	-9.23968
▁program	-9.23971
▁Street	-9.24036
▁Ro	-9.24052
▁Hu	-9.24062
hi	-9.24194
▁areas	-9.24248
▁jail	-9.24257
▁Ka	-9.24317
ger	-9.2442
▁letter	-9.24423
▁issues	-9.24513
▁walk	-9.24527
pe	-9.24827
▁however	-9.25021
▁bill	-9.25197
▁door	-9.252
▁data	-9.25216
ig	-9.25356
▁drugs	-9.25388
mer	-9.25391
▁create	-9.25414
▁region	-9.25483
we	-9.25669
▁carried	-9.2569
▁calls	-9.25717
▁warned	-9.25718
op	-9.25819
▁victory	-9.2588
les	-9.25966
▁percent	-9.25983
▁total	-9.25986
ak	-9.26045
▁doctors	-9.26151
▁crash	-9.26184
▁accident	-9.26196
▁understand	-9.26201
▁sea	-9.26299
▁quite	-9.26312
ex	-9.26379
ism	-9.26418
▁response	-9.26758
▁needs	-9.26813
▁fell	-9.26853
▁contact	-9.27038
▁eye	-9.27127
▁sentence	-9.27175
ey	-9.27204
▁election	-9.27272
▁continued	-9.27307
ping	-9.27373
▁included	-9.27382
▁disease	-9.27453
ver	-9.27514
▁feet	-9.27611
▁store	-9.27631
▁beat	-9.27661
▁camera	-9.27785
▁Chris	-9.27878
▁birth	-9.27985
▁average	-9.28033
ut	-9.28215
▁female	-9.28231
▁Ben	-9.28303
vo	-9.28456
▁source	-9.28458
▁Sir	-9.28546
▁firm	-9.2874
lin	-9.28756
▁stage	-9.28769
▁range	-9.2883
▁project	-9.29023
▁Arsenal	-9.29037
When	-9.29143
▁reason	-9.29181
▁V	-9.29185
▁above	-9.29237
▁agency	-9.29289
▁More	-9.29444
▁Germany	-9.2957
▁minister	-9.29765
gg	-9.29802
▁biggest	-9.29815
▁launched	-9.30253
▁Ma	-9.30507
▁surgery	-9.30601
▁Texas	-9.30678
▁view	-9.30695
▁owner	-9.30777
▁step	-9.308
▁German	-9.3098
▁instead	-9.3105
▁allow	-9.31097
▁self	-9.31223
▁impact	-9.31259
▁pictures	-9.31379
▁previously	-9.31485
▁Americans	-9.31487
▁Chinese	-9.3154
▁60	-9.31721
▁executive	-9.31752
▁economic	-9.31772
▁hour	-9.31833
▁fall	-9.31917
▁2008	-9.31938
▁coach	-9.32061
▁train	-9.32106
▁although	-9.32123
ah	-9.32166
vi	-9.32241
▁Council	-9.32243
▁mind	-9.32275
▁quickly	-9.32359
▁size	-9.32397
▁general	-9.32415
▁vehicle	-9.32518
▁attorney	-9.3256
▁fighting	-9.32588
▁potential	-9.32657
▁floor	-9.32675
red	-9.32746
▁Apple	-9.32805
▁Government	-9.3289
▁offer	-9.32932
▁interest	-9.32992
▁fear	-9.33089
▁music	-9.331
▁African	-9.33251
▁Williams	-9.33475
▁previous	-9.33574
▁page	-9.33588
▁south	-9.33591
▁Peter	-9.3365
▁Los	-9.33674
em	-9.33737
▁Bar	-9.33772
pm	-9.33784
ance	-9.33886
▁loss	-9.33943
▁Afghanistan	-9.34002
▁Lo	-9.34034
om	-9.34127
▁damage	-9.34128
▁pain	-9.34173
▁22	-9.34381
▁Republican	-9.34529
▁High	-9.34583
▁contributed	-9.34597
▁Ca	-9.34628
▁c	-9.34638
▁technology	-9.34649
▁refused	-9.34757
▁joined	-9.34848
▁giving	-9.34928
side	-9.34983
▁built	-9.35168
▁north	-9.35224
▁Richard	-9.35331
▁spoke	-9.35448
▁denied	-9.35485
▁convicted	-9.35605
ud	-9.35677
▁Health	-9.35757
▁Po	-9.35849
▁Scotland	-9.36094
▁immediately	-9.36143
nd	-9.3623
▁troops	-9.3629
▁act	-9.36365
▁attention	-9.36542
▁title	-9.36583
▁raised	-9.3659
▁class	-9.36591
▁lived	-9.36631
▁safe	-9.36716
▁Pro	-9.36855
za	-9.37012
▁scored	-9.37016
▁operation	-9.3703
▁Jackson	-9.37076
▁build	-9.37092
▁conference	-9.37177
▁border	-9.37245
▁main	-9.37262
▁takes	-9.37353
▁press	-9.37403
▁users	-9.37514
▁residents	-9.37551
▁art	-9.37908
▁My	-9.37984
▁gas	-9.38014
▁partner	-9.38114
bb	-9.38321
▁Another	-9.38376
▁buy	-9.38402
▁foreign	-9.38595
▁kids	-9.38617
▁ran	-9.38705
▁protect	-9.38717
▁Korea	-9.38795
▁believes	-9.38898
▁Queen	-9.38972
▁photos	-9.39092
▁followed	-9.39176
▁park	-9.3931
▁states	-9.3933
▁Clinton	-9.39361
▁details	-9.39374
▁Center	-9.39413
▁spend	-9.39447
▁herself	-9.39497
▁Real	-9.395
▁William	-9.3968
▁van	-9.39748
▁Despite	-9.39818
▁happen	-9.39834
▁increase	-9.39927
▁companies	-9.40041
▁Office	-9.40144
bi	-9.4032
▁kill	-9.40431
▁passed	-9.40457
▁appear	-9.40499
▁Ar	-9.40506
▁newspaper	-9.40585
▁Sa	-9.40618
▁success	-9.40631
▁avoid	-9.40654
▁st	-9.40682
▁words	-9.4069
field	-9.40827
▁goals	-9.40831
▁Ha	-9.40837
▁either	-9.40884
▁Ne	-9.41075
based	-9.41137
va	-9.41303
▁shown	-9.41341
▁Johnson	-9.41355
▁probably	-9.41371
ba	-9.41493
gu	-9.41527
ised	-9.41567
▁Iran	-9.41618
▁example	-9.41682
▁wedding	-9.41735
▁Pa	-9.41784
▁published	-9.41895
mi	-9.41918
▁weather	-9.41958
▁financial	-9.41992
▁reach	-9.42043
▁fine	-9.42118
ph	-9.42138
▁bed	-9.42207
▁ban	-9.42267
▁oil	-9.42269
My	-9.42345
▁Google	-9.42436
▁industry	-9.42512
▁holiday	-9.42529
▁share	-9.42583
▁allegations	-9.42686
▁towards	-9.42772
▁amount	-9.4278
os	-9.42864
▁offered	-9.42913
▁spending	-9.42945
▁£2	-9.42952
▁Madrid	-9.43017
▁questions	-9.43117
▁cover	-9.43168
▁Air	-9.43208
▁events	-9.43275
▁customers	-9.43303
▁striker	-9.43339
▁goes	-9.43363
▁ended	-9.43415
▁seems	-9.43475
▁conditions	-9.43755
▁opening	-9.43773
▁save	-9.43802
▁sell	-9.43866
ning	-9.44011
▁finally	-9.44077
▁growing	-9.44152
▁hundreds	-9.44238
▁global	-9.44261
▁stopped	-9.44356
▁isn	-9.44377
▁signed	-9.44419
▁23	-9.44427
▁threat	-9.44483
▁term	-9.44557
▁Sam	-9.44635
▁energy	-9.4472
▁broke	-9.4479
▁else	-9.44838
ot	-9.45018
▁winning	-9.45024
que	-9.452
▁emergency	-9.45266
▁lawyer	-9.45311
▁Mc	-9.45317
▁drive	-9.45338
▁especially	-9.45372
ee	-9.45373
▁Ri	-9.45513
▁center	-9.45604
▁cash	-9.45664
▁Can	-9.45701
▁weapons	-9.45714
▁Wales	-9.4573
ac	-9.45769
▁lose	-9.45826
▁lack	-9.45833
▁Ed	-9.45865
▁t	-9.46014
▁Jones	-9.4607
▁Congress	-9.46098
▁alone	-9.46128
▁raise	-9.46204
▁sense	-9.46207
▁boss	-9.46241
▁mission	-9.46276
▁field	-9.46377
▁Ham	-9.46405
▁skin	-9.46479
▁challenge	-9.46499
▁passengers	-9.4668
king	-9.46687
▁agreed	-9.46916
▁speech	-9.46958
▁non	-9.46988
▁contract	-9.47006
▁opened	-9.47154
▁changed	-9.47207
▁protest	-9.47303
▁doctor	-9.47308
▁council	-9.47473
ned	-9.47515
▁tour	-9.47523
▁attempt	-9.47528
▁results	-9.47572
▁reportedly	-9.4761
▁bid	-9.47651
▁simply	-9.48064
au	-9.48065
▁Red	-9.48117
▁track	-9.48314
▁soldiers	-9.48321
kin	-9.48355
▁Brazil	-9.48393
bo	-9.48417
▁Former	-9.48454
▁v	-9.48468
▁app	-9.48588
▁India	-9.48619
▁Spain	-9.48647
▁effort	-9.48647
▁host	-9.48679
▁dangerous	-9.4872
▁television	-9.48724
▁appears	-9.48783
ze	-9.48923
▁figures	-9.4901
▁famous	-9.49062
▁evening	-9.49229
▁economy	-9.49275
▁figure	-9.49302
▁receive	-9.49321
▁treated	-9.49332
▁considered	-9.49423
▁mean	-9.49439
▁showing	-9.49451
▁Du	-9.49494
▁bought	-9.49546
▁Van	-9.49658
▁Mexico	-9.49777
▁di	-9.49801
▁competition	-9.49814
v	-9.49836
▁suspect	-9.49867
ber	-9.49915
▁complete	-9.49931
▁ask	-9.49958
▁Robert	-9.49987
▁afternoon	-9.50271
▁Lee	-9.50297
▁wear	-9.50389
▁ordered	-9.50434
▁send	-9.50505
▁common	-9.50508
▁Bill	-9.50694
▁performance	-9.50748
▁ensure	-9.50775
▁Lu	-9.50788
▁bank	-9.50956
▁aged	-9.5099
wa	-9.51069
▁&	-9.51074
▁nearby	-9.51085
▁ready	-9.51098
▁jury	-9.51256
▁snow	-9.51278
ford	-9.51362
▁speak	-9.5141
▁Angeles	-9.51445
ho	-9.51497
50	-9.51589
all	-9.51629
ized	-9.51754
▁identified	-9.51872
▁join	-9.51922
▁airport	-9.52005
▁squad	-9.52163
▁captain	-9.52165
▁movie	-9.52284
▁calling	-9.52321
ten	-9.52321
▁costs	-9.52332
▁emerged	-9.52563
▁cars	-9.52688
▁extra	-9.52691
).	-9.52731
▁experts	-9.52758
▁efforts	-9.52915
▁remember	-9.52931
▁administration	-9.52953
▁fashion	-9.52953
ow	-9.53007
▁concerns	-9.53104
▁spot	-9.53181
▁animal	-9.53248
▁ship	-9.533
▁Many	-9.53325
▁ISIS	-9.53351
▁prevent	-9.5336
▁screen	-9.5343
▁leg	-9.53576
fi	-9.53589
▁Not	-9.53596
▁poor	-9.53637
well	-9.53752
dic	-9.53776
ney	-9.53779
▁Car	-9.53831
▁homes	-9.53918
▁issued	-9.53974
▁rate	-9.53976
▁moving	-9.53976
▁hear	-9.53995
▁gold	-9.54035
▁adding	-9.54132
▁crisis	-9.54136
▁designed	-9.54302
▁largest	-9.54326
▁higher	-9.54347
▁arm	-9.5437
▁animals	-9.54433
ble	-9.54508
▁character	-9.54514
▁wouldn	-9.54667
▁civil	-9.5467
ier	-9.54723
▁eyes	-9.54774
ding	-9.54776
▁draw	-9.54872
▁twice	-9.55002
▁rules	-9.55013
▁fellow	-9.55041
▁charity	-9.55047
▁sp	-9.55117
ina	-9.5512
▁jailed	-9.55258
▁suffering	-9.55487
▁unable	-9.55491
▁professional	-9.55547
▁population	-9.55574
▁Andrew	-9.55579
▁justice	-9.55604
That	-9.5564
▁blue	-9.55686
mon	-9.55808
▁apartment	-9.55818
▁served	-9.55877
▁26	-9.55937
▁Su	-9.55975
▁church	-9.56038
▁Ga	-9.56074
▁respect	-9.56111
▁carry	-9.56224
▁faces	-9.56226
▁Italy	-9.56259
▁opportunity	-9.5633
▁Jo	-9.56394
▁w	-9.56404
▁rise	-9.56462
▁middle	-9.56466
▁base	-9.56526
▁eventually	-9.56569
▁date	-9.56574
▁loved	-9.56615
▁works	-9.56642
▁Paris	-9.56645
▁development	-9.56657
▁Harry	-9.56672
▁Reporter	-9.56686
▁aid	-9.56896
▁Times	-9.56998
▁pass	-9.57004
▁Tom	-9.57101
ence	-9.57155
▁Israel	-9.57181
▁Ja	-9.57218
ise	-9.57305
ang	-9.57322
▁sentenced	-9.57343
▁defeat	-9.57352
▁terms	-9.57381
▁display	-9.57528
▁NHS	-9.57757
▁written	-9.57794
▁Daniel	-9.57842
▁Army	-9.57895
▁storm	-9.57917
▁2007	-9.57948
▁fit	-9.5809
▁Lord	-9.58112
▁managed	-9.58214
▁Thomas	-9.58279
▁changes	-9.58315
▁Li	-9.58341
▁During	-9.58436
▁true	-9.58529
fe	-9.58562
ran	-9.58568
ron	-9.58605
end	-9.5862
▁Kim	-9.58646
▁version	-9.58746
▁village	-9.5875
▁girlfriend	-9.58798
▁debate	-9.5884
▁crowd	-9.58936
▁double	-9.58964
▁Green	-9.58985
▁Senate	-9.59058
over	-9.59135
▁pulled	-9.59191
▁Justice	-9.59249
▁wait	-9.59266
▁attacked	-9.59375
▁launch	-9.594
▁department	-9.59488
▁central	-9.59496
ial	-9.5955
▁onto	-9.59556
▁Alex	-9.59617
▁review	-9.59656
▁aircraft	-9.59704
▁minute	-9.59772
▁footage	-9.5979
like	-9.59872
▁Judge	-9.59876
▁Syrian	-9.59912
▁dress	-9.5996
▁text	-9.59988
▁appeal	-9.6008
qui	-9.60142
▁crew	-9.60177
▁27	-9.60233
▁parts	-9.60346
▁particularly	-9.6041
ize	-9.60442
▁male	-9.60471
pa	-9.60477
▁penalty	-9.6052
▁lower	-9.60522
▁certain	-9.60536
▁present	-9.60675
▁Ko	-9.60717
▁telling	-9.60756
▁camp	-9.60795
▁fourth	-9.60875
▁Christian	-9.60925
▁Islamic	-9.6106
▁magazine	-9.61077
ach	-9.61116
ru	-9.61362
▁die	-9.61469
▁bus	-9.61482
▁secret	-9.61556
▁removed	-9.6156
▁supporters	-9.61607
▁shop	-9.61622
▁expect	-9.61722
▁style	-9.61756
▁Un	-9.61764
▁boys	-9.61781
▁responsible	-9.61785
▁Pe	-9.61788
▁deep	-9.61847
▁design	-9.61875
▁flat	-9.61919
▁fun	-9.61979
cu	-9.62012
▁People	-9.62145
▁throughout	-9.62217
ring	-9.62323
▁talking	-9.62433
▁eat	-9.62465
▁45	-9.62511
▁schools	-9.62586
▁Crown	-9.62631
▁giant	-9.62651
▁Black	-9.62815
▁How	-9.62838
▁trust	-9.6285
▁mobile	-9.6288
io	-9.62888
▁collection	-9.62927
▁network	-9.62939
▁sale	-9.6303
▁Even	-9.63163
if	-9.63177
▁suicide	-9.63226
he	-9.63255
▁struck	-9.63302
▁table	-9.63453
▁enjoy	-9.63465
▁carrying	-9.63507
▁address	-9.63568
j	-9.63581
▁asking	-9.63891
▁seeing	-9.63892
▁fired	-9.64005
▁normal	-9.64037
5,000	-9.6404
▁fan	-9.64078
▁28	-9.64168
gi	-9.64171
▁holding	-9.64234
▁rare	-9.64249
▁band	-9.64253
▁island	-9.64258
▁completely	-9.64293
▁90	-9.64349
What	-9.64399
▁dropped	-9.64437
▁X	-9.64445
▁mid	-9.64457
▁Union	-9.64493
▁Ex	-9.64521
ub	-9.64549
▁Har	-9.64615
▁nuclear	-9.64663
▁These	-9.64812
▁bodies	-9.64861
▁documents	-9.64911
▁drink	-9.64957
▁streets	-9.64964
▁includes	-9.65065
▁Z	-9.65074
▁entire	-9.65271
▁computer	-9.654
▁walking	-9.65401
▁itself	-9.65569
▁straight	-9.65575
▁reached	-9.65666
▁alcohol	-9.65718
▁Wi	-9.65734
▁closed	-9.65748
▁Bush	-9.65752
▁concerned	-9.65774
▁Pakistan	-9.65783
▁Champions	-9.65906
our	-9.66057
▁Japan	-9.66143
▁row	-9.66151
ab	-9.66165
▁author	-9.66187
▁target	-9.66257
▁appearance	-9.66315
▁mis	-9.66339
▁speed	-9.66382
▁focus	-9.66404
▁Vi	-9.66451
▁restaurant	-9.6648
▁gang	-9.66492
▁feeling	-9.66511
▁Pi	-9.66538
▁education	-9.66552
▁levels	-9.66664
▁Charles	-9.66669
▁reporters	-9.66747
00	-9.66801
ther	-9.66843
▁70	-9.66845
▁successful	-9.66916
▁planned	-9.66918
▁effect	-9.66988
back	-9.67031
▁Gu	-9.6712
▁doubt	-9.67155
▁teacher	-9.67167
month	-9.67182
let	-9.67303
▁illegal	-9.6734
▁hopes	-9.67374
▁products	-9.67398
▁pick	-9.67486
▁easy	-9.67507
▁waiting	-9.6751
▁meant	-9.67541
▁benefits	-9.67575
▁card	-9.67613
▁Italian	-9.67681
▁sales	-9.67719
▁significant	-9.67802
And	-9.67825
▁First	-9.6785
tra	-9.67859
▁defense	-9.67918
▁sun	-9.67918
▁positive	-9.67979
▁decades	-9.67988
▁placed	-9.68223
▁learn	-9.68241
▁cross	-9.68372
▁Service	-9.6838
▁box	-9.68424
▁ma	-9.68451
▁rain	-9.68466
▁seat	-9.68472
▁winner	-9.68574
▁jobs	-9.68591
▁voice	-9.68617
▁rape	-9.68651
▁original	-9.68709
▁older	-9.68827
▁Security	-9.68863
▁pretty	-9.68949
▁majority	-9.68991
▁Star	-9.69015
▁ice	-9.69027
▁Watch	-9.69032
▁word	-9.69042
ged	-9.69047
▁hot	-9.69073
▁planning	-9.69191
▁MP	-9.69219
ward	-9.69254
▁Steve	-9.69295
▁massive	-9.69346
▁highest	-9.69347
▁presidential	-9.6939
▁Muslim	-9.69469
▁General	-9.69489
▁suggested	-9.69491
▁Barcelona	-9.69641
nt	-9.69644
ell	-9.69784
▁check	-9.69791
▁messages	-9.69798
▁follow	-9.69905
▁hurt	-9.69989
for	-9.70023
▁sort	-9.7008
▁Hall	-9.70139
▁opposition	-9.70164
▁Fi	-9.70172
▁God	-9.70187
▁captured	-9.70361
gen	-9.70505
▁sleep	-9.70518
▁alongside	-9.70538
ng	-9.70573
▁spread	-9.70715
▁worst	-9.70723
▁programme	-9.70778
▁helping	-9.70786
▁cr	-9.70856
ett	-9.70898
▁champion	-9.70967
▁coast	-9.71013
▁myself	-9.71035
▁shared	-9.7107
▁brand	-9.71081
mb	-9.71179
▁Both	-9.71211
▁actions	-9.71369
▁Sen	-9.71375
▁patient	-9.71438
▁broken	-9.71448
▁league	-9.71567
▁Party	-9.71677
▁Sydney	-9.71711
▁Barack	-9.71754
tor	-9.71899
▁$2	-9.72113
ko	-9.72142
▁gay	-9.72201
▁perfect	-9.72229
ker	-9.72365
▁foot	-9.72453
▁trade	-9.72516
▁whom	-9.72648
ja	-9.7266
▁individual	-9.72783
▁la	-9.72784
▁becoming	-9.728
▁subject	-9.72851
▁heavy	-9.72858
▁device	-9.72878
tro	-9.72961
▁clean	-9.73085
▁FBI	-9.73121
▁loan	-9.73135
▁filed	-9.73138
▁Bur	-9.73139
▁cell	-9.73176
ever	-9.73216
▁0	-9.73236
▁watching	-9.73306
▁compared	-9.73324
▁conflict	-9.73427
▁80	-9.73517
▁rock	-9.73536
port	-9.73729
▁answer	-9.73739
▁Sea	-9.73769
▁Mu	-9.73816
▁chairman	-9.73833
wood	-9.739
▁college	-9.73952
▁fast	-9.74053
▁insisted	-9.74057
▁Spanish	-9.74116
▁garden	-9.74188
▁custody	-9.74242
▁midfielder	-9.74353
▁bomb	-9.74422
▁Under	-9.74516
▁cold	-9.74537
▁VIDEO	-9.74552
▁Although	-9.74559
▁talks	-9.74622
mar	-9.74738
▁ruled	-9.74751
▁Ru	-9.74782
▁Jack	-9.74801
▁features	-9.74808
▁natural	-9.74887
▁green	-9.74895
▁Of	-9.74896
▁separate	-9.74966
▁claiming	-9.74989
ki	-9.75139
▁Cha	-9.75173
mail	-9.75351
▁Or	-9.75362
▁Home	-9.75535
tter	-9.75586
▁Meanwhile	-9.7567
▁dogs	-9.75756
▁fuel	-9.75776
▁regime	-9.75841
20	-9.759
▁se	-9.75937
ure	-9.75979
▁Joe	-9.7599
▁starting	-9.76035
▁committed	-9.76159
▁tournament	-9.76299
▁beautiful	-9.76327
▁suit	-9.76336
▁“	-9.76488
▁immigration	-9.76522
▁Today	-9.76661
pt	-9.76669
ving	-9.76672
▁drop	-9.76678
▁traffic	-9.7669
▁Murray	-9.76691
▁beach	-9.76725
▁worse	-9.76746
tal	-9.76755
▁losing	-9.76772
▁century	-9.76785
▁aware	-9.76792
▁seemed	-9.76821
▁warning	-9.76825
▁armed	-9.76835
▁super	-9.76956
▁suspended	-9.77055
▁certainly	-9.77057
▁unit	-9.7706
▁Olympic	-9.77088
▁Post	-9.77143
▁teenager	-9.77169
▁serve	-9.77257
▁Ebola	-9.77344
▁d	-9.77359
▁stars	-9.77366
head	-9.77377
▁EU	-9.7741
tri	-9.77501
ap	-9.77502
▁deaths	-9.77532
▁sports	-9.77541
▁affected	-9.77598
term	-9.77648
▁consider	-9.77667
▁Since	-9.77709
▁Earth	-9.7772
▁facing	-9.77824
▁standing	-9.77904
▁piece	-9.77928
▁Scott	-9.7793
▁violent	-9.77939
ship	-9.77945
▁Association	-9.77965
low	-9.77969
Y	-9.78022
bu	-9.78135
▁spotted	-9.78139
▁practice	-9.78181
▁severe	-9.78218
▁sport	-9.78238
▁Cor	-9.78337
ped	-9.78359
▁2006	-9.7836
▁request	-9.78436
▁putting	-9.78532
▁Press	-9.78538
▁pregnant	-9.78552
▁paper	-9.78595
▁Chief	-9.7863
▁ill	-9.78642
▁grand	-9.78825
▁Ukraine	-9.78932
▁Republicans	-9.78947
▁linked	-9.79016
▁Nick	-9.7904
▁strike	-9.79066
▁numbers	-9.79074
▁ho	-9.79083
▁scientists	-9.79084
▁sometimes	-9.79128
▁Korean	-9.79164
▁£3	-9.79171
ight	-9.79177
ick	-9.79183
▁millions	-9.79252
▁provided	-9.79309
▁quarter	-9.79348
ical	-9.79357
▁investigators	-9.7936
▁Big	-9.79399
▁modern	-9.7943
▁mo	-9.79507
▁Da	-9.79543
▁MailOnline	-9.79582
▁Other	-9.79602
▁wide	-9.79635
▁internet	-9.79679
zi	-9.7968
▁culture	-9.79708
▁credit	-9.79755
▁banned	-9.79785
▁Louis	-9.79861
▁touch	-9.79911
▁dark	-9.79917
▁Old	-9.79917
▁Za	-9.79958
▁Grand	-9.79959
▁intelligence	-9.79966
▁budget	-9.79986
▁reasons	-9.79986
▁ring	-9.801
▁expressed	-9.80297
▁po	-9.80414
▁scandal	-9.80431
ious	-9.80446
▁choice	-9.80477
▁seem	-9.80555
ative	-9.80566
▁benefit	-9.80764
ising	-9.80777
▁tough	-9.8079
pp	-9.80792
mate	-9.80871
▁walked	-9.80872
▁Romney	-9.80875
▁boat	-9.80899
▁peace	-9.80921
▁causing	-9.80973
As	-9.80977
ably	-9.81073
▁Mike	-9.81107
▁covered	-9.81176
che	-9.81203
▁clearly	-9.81242
▁ability	-9.81328
▁decade	-9.81332
▁mental	-9.81445
▁29	-9.81506
▁Palace	-9.81598
▁estimated	-9.81688
▁continues	-9.81733
▁defender	-9.81771
▁names	-9.81794
▁Just	-9.81919
▁agreement	-9.81979
▁birthday	-9.82026
▁Three	-9.82037
ists	-9.82094
▁window	-9.8217
▁records	-9.82277
▁occurred	-9.82288
ok	-9.82346
▁actor	-9.82363
▁annual	-9.82384
long	-9.82392
gan	-9.82415
▁type	-9.82417
▁pleaded	-9.82452
▁visited	-9.8247
▁apparently	-9.82488
▁dream	-9.82601
▁laws	-9.82652
▁items	-9.82689
▁Se	-9.82766
▁via	-9.82938
▁lo	-9.82944
▁Open	-9.8297
ries	-9.83028
▁progress	-9.83076
▁Speaking	-9.83095
ip	-9.83141
▁Georgia	-9.83162
▁Ad	-9.83166
▁researchers	-9.83174
lic	-9.83182
▁approach	-9.83232
▁handed	-9.83304
▁explained	-9.83304
▁terrorist	-9.83327
▁2004	-9.8337
▁200	-9.83378
az	-9.83398
▁attended	-9.83406
To	-9.8344
▁Island	-9.83467
▁alive	-9.83469
▁ceremony	-9.83553
▁River	-9.83706
▁below	-9.83783
▁Kate	-9.83822
▁accept	-9.83989
▁rescue	-9.83989
▁ruling	-9.84177
▁attempted	-9.84196
▁Sch	-9.84217
▁pitch	-9.84259
▁reality	-9.8429
rie	-9.843
▁movement	-9.84487
▁eating	-9.84491
▁Most	-9.84519
▁truck	-9.84537
▁Year	-9.84656
▁fly	-9.84697
▁Bay	-9.847
▁prices	-9.84739
▁healthy	-9.84757
▁behaviour	-9.84797
▁extremely	-9.8483
▁fair	-9.8485
▁bag	-9.84851
▁usually	-9.84894
▁bottom	-9.84935
lan	-9.85024
ag	-9.85075
▁grow	-9.85125
▁shock	-9.85204
▁parties	-9.85216
▁signs	-9.85237
▁connection	-9.85275
ice	-9.85278
▁o	-9.8538
▁warm	-9.85423
▁protesters	-9.85456
uff	-9.8548
▁employees	-9.8566
▁Group	-9.85677
▁investigating	-9.85752
▁pool	-9.85827
▁fully	-9.85906
▁singer	-9.85917
▁thinking	-9.85982
▁sub	-9.86
▁arms	-9.86034
▁increased	-9.8606
▁suspected	-9.86092
gar	-9.86152
act	-9.86182
han	-9.86211
▁harm	-9.86253
▁beyond	-9.86365
▁Boston	-9.86394
▁flying	-9.86414
▁spokeswoman	-9.86448
ren	-9.86468
tle	-9.86583
▁views	-9.86613
▁finish	-9.86676
▁plant	-9.86676
▁Simon	-9.86766
▁Democratic	-9.86824
▁pounds	-9.86954
▁iPhone	-9.86983
▁younger	-9.87006
▁Newcastle	-9.87024
▁concern	-9.87094
ay	-9.87214
her	-9.87238
row	-9.87252
▁university	-9.87293
▁hoping	-9.87366
▁traditional	-9.87443
ff	-9.87468
▁survey	-9.87483
▁district	-9.87501
zz	-9.87507
▁Taylor	-9.87521
▁Pat	-9.87524
▁trouble	-9.8798
▁quality	-9.8798
▁FA	-9.87986
▁learned	-9.88105
▁finding	-9.88134
▁drinking	-9.88141
▁controversial	-9.88146
▁Their	-9.88163
▁value	-9.88171
▁wall	-9.88335
▁committee	-9.88355
▁diet	-9.88393
▁initially	-9.88456
▁sitting	-9.88458
▁Hill	-9.88531
▁beginning	-9.88573
▁audience	-9.88649
▁remained	-9.88675
▁Chi	-9.88711
▁diagnosed	-9.88773
▁developed	-9.88781
▁shape	-9.88804
▁improve	-9.88818
ny	-9.88868
▁begin	-9.88902
▁Mary	-9.88913
▁mass	-9.88989
▁domestic	-9.89049
▁watched	-9.89053
▁Victoria	-9.89058
▁attend	-9.89059
▁block	-9.89092
▁exercise	-9.89112
▁responsibility	-9.89133
▁Qaeda	-9.89221
pro	-9.89226
▁Israeli	-9.89277
ities	-9.89279
so	-9.89326
▁radio	-9.89328
▁perform	-9.89351
▁Ryan	-9.89455
ov	-9.89457
▁growth	-9.89511
▁cl	-9.89561
▁prosecutors	-9.89568
▁Super	-9.89628
▁powerful	-9.89681
▁royal	-9.89726
▁operations	-9.89732
▁NEW	-9.89853
▁Democrats	-9.89865
▁Jersey	-9.89875
▁poll	-9.89931
▁missed	-9.89949
▁fish	-9.90028
▁Then	-9.90043
hu	-9.90143
▁Bra	-9.90174
▁counts	-9.90387
ions	-9.9042
▁r	-9.90434
▁physical	-9.90441
▁voters	-9.90446
mm	-9.90459
▁lawsuit	-9.90524
▁prove	-9.90573
▁sh	-9.90575
▁boyfriend	-9.90604
So	-9.90607
wi	-9.9067
▁language	-9.90677
ps	-9.90737
▁Act	-9.90746
fa	-9.90763
▁Authorities	-9.90793
▁failure	-9.90796
▁proud	-9.90845
▁Wilson	-9.90868
▁article	-9.90878
▁shortly	-9.90955
▁serving	-9.91002
▁path	-9.91119
▁society	-9.91136
▁Ke	-9.91137
▁Will	-9.91137
ors	-9.91206
▁crimes	-9.91254
▁mark	-9.91257
▁journey	-9.91395
▁ba	-9.9141
▁terror	-9.91432
▁determined	-9.91455
▁Ireland	-9.91461
▁bin	-9.91547
▁debt	-9.9159
▁bail	-9.91604
▁Committee	-9.91611
▁seeking	-9.9166
▁runs	-9.91692
▁Ni	-9.91736
▁speaking	-9.91766
▁Wa	-9.9178
▁Maria	-9.91805
ging	-9.91818
▁transfer	-9.91863
▁owners	-9.91962
▁simple	-9.92175
▁threatened	-9.92259
▁exactly	-9.92269
▁count	-9.92461
▁amazing	-9.9248
ified	-9.92484
ked	-9.92491
ik	-9.92495
▁Stephen	-9.92502
▁seek	-9.92565
▁Fe	-9.92709
▁Dan	-9.92729
▁Che	-9.92771
▁worker	-9.92841
▁regular	-9.92846
ep	-9.92865
▁stone	-9.92956
▁picked	-9.92987
▁teams	-9.92987
For	-9.92991
aw	-9.93028
▁cities	-9.9308
▁sound	-9.93151
▁product	-9.93256
▁measures	-9.93297
▁places	-9.93299
▁imp	-9.93317
▁slow	-9.93384
▁treat	-9.93384
▁northern	-9.93401
sen	-9.93409
▁smoke	-9.93445
▁Good	-9.93462
▁virus	-9.9351
J	-9.93593
od	-9.93606
▁sit	-9.93641
No	-9.93673
nes	-9.93728
▁content	-9.93791
▁selling	-9.93795
▁pilot	-9.93891
▁estate	-9.93894
▁Sha	-9.9393
▁agree	-9.93957
▁required	-9.94071
▁Tu	-9.94112
▁Col	-9.94114
▁tests	-9.94118
▁Middle	-9.94305
▁wish	-9.94322
tion	-9.94351
▁Mon	-9.9436
▁defence	-9.94418
▁fresh	-9.94465
house	-9.94483
▁tweeted	-9.94494
▁complex	-9.94508
▁organization	-9.94536
▁Bank	-9.94655
ya	-9.94669
▁addition	-9.94745
▁protests	-9.94804
▁corner	-9.94818
▁farm	-9.94978
▁photographer	-9.95204
▁decide	-9.95216
▁Matt	-9.95228
▁Ju	-9.95293
▁remove	-9.9542
▁Don	-9.95427
▁Young	-9.95448
ath	-9.95453
ev	-9.95464
▁Indian	-9.95531
▁2005	-9.95582
▁surface	-9.956
ven	-9.95702
▁activity	-9.9572
▁demand	-9.95753
▁score	-9.95775
pping	-9.95857
▁multiple	-9.95879
ual	-9.95895
▁Pre	-9.95961
▁favourite	-9.96016
cre	-9.96047
▁prepared	-9.96048
board	-9.96055
not	-9.96076
▁finished	-9.96146
▁various	-9.96169
ai	-9.96199
Our	-9.96238
▁Chicago	-9.96305
▁gets	-9.96307
▁Games	-9.96362
▁Western	-9.96397
▁Coast	-9.96419
▁Sarah	-9.96432
▁actress	-9.96441
my	-9.96442
dis	-9.96555
rd	-9.96592
ong	-9.96624
▁particular	-9.96667
▁guy	-9.96681
jo	-9.96687
▁Ali	-9.9671
▁Bridge	-9.9675
▁signing	-9.96793
▁Hollywood	-9.96829
▁artist	-9.96851
ear	-9.96976
▁blow	-9.97179
▁daily	-9.97217
ins	-9.97302
rn	-9.9733
▁tribute	-9.97376
▁nature	-9.97378
▁Tony	-9.97394
▁reaction	-9.9741
▁From	-9.97484
▁push	-9.97528
▁east	-9.97566
▁highly	-9.97582
dge	-9.97608
▁Egypt	-9.97621
▁breast	-9.97628
▁amid	-9.97671
▁southern	-9.97997
▁Ti	-9.98021
▁independent	-9.98024
▁ch	-9.9806
▁funeral	-9.98066
▁enforcement	-9.98117
work	-9.98206
▁heat	-9.98208
ple	-9.98226
ile	-9.98256
▁clothes	-9.98351
ani	-9.98373
▁Great	-9.98459
▁expensive	-9.98489
▁designer	-9.98499
▁location	-9.98525
▁visitors	-9.98528
▁upon	-9.98556
▁prime	-9.98622
ung	-9.98647
ill	-9.98761
▁religious	-9.98783
▁2003	-9.98801
▁material	-9.98834
▁Wood	-9.98844
▁District	-9.98854
▁Carolina	-9.98901
▁Taliban	-9.99086
▁reform	-9.99158
▁agent	-9.99173
▁Bi	-9.99311
▁clash	-9.99333
▁paying	-9.99341
▁matches	-9.99485
▁Tory	-9.99491
▁cast	-9.99586
▁scheduled	-9.99659
tin	-9.99664
▁Ver	-9.99699
▁Anthony	-9.99717
▁candidate	-9.99742
use	-9.99817
▁note	-9.99818
▁responded	-9.99853
▁false	-9.99952
▁shopping	-9.99966
▁stories	-9.99999
▁faced	-10.0007
▁Je	-10.0009
▁expert	-10.0016
ction	-10.0018
▁reduce	-10.0026
▁army	-10.0037
▁McC	-10.0042
car	-10.0048
▁cat	-10.005
ris	-10.0051
ville	-10.0052
fer	-10.0052
▁toward	-10.0055
▁k	-10.0058
▁sc	-10.0059
▁En	-10.006
▁Lake	-10.006
▁Law	-10.0062
set	-10.0063
▁seriously	-10.0065
ou	-10.0066
▁difference	-10.0067
ek	-10.0068
▁legs	-10.0076
▁machine	-10.0079
▁Four	-10.0083
▁advice	-10.009
▁Andy	-10.0091
▁kick	-10.0091
▁haven	-10.0093
▁Gaal	-10.0093
▁escape	-10.0095
▁rule	-10.0101
ery	-10.0103
▁witness	-10.0105
▁neck	-10.0107
▁Church	-10.0108
▁Gi	-10.011
▁Internet	-10.0111
▁Mac	-10.0115
▁Earlier	-10.0118
▁miss	-10.0119
▁Airport	-10.0122
▁Lewis	-10.0123
▁shirt	-10.0126
▁quick	-10.0126
▁guard	-10.0127
▁west	-10.0129
izing	-10.0132
▁confirm	-10.0133
▁Eric	-10.0134
▁insurance	-10.0144
▁confidence	-10.0145
▁Road	-10.0145
▁ride	-10.0148
▁scheme	-10.0152
▁sat	-10.0167
ible	-10.0168
▁unusual	-10.0173
billion	-10.0175
▁vehicles	-10.0178
▁perhaps	-10.0178
▁production	-10.018
▁shoot	-10.0183
▁panel	-10.0186
▁Jose	-10.0187
▁recorded	-10.0193
▁ways	-10.0195
run	-10.0198
▁Bu	-10.0206
▁fraud	-10.0207
▁dinner	-10.0209
▁direct	-10.0209
▁offering	-10.0211
ns	-10.0212
▁critical	-10.0213
▁thanks	-10.0216
▁Family	-10.0216
ez	-10.022
▁recovery	-10.0243
▁feature	-10.0249
▁Frank	-10.0249
▁produce	-10.0255
su	-10.0257
▁$3	-10.0261
▁dad	-10.0262
▁keeping	-10.027
▁nice	-10.0282
▁youth	-10.0287
▁wind	-10.0289
▁honor	-10.0291
ana	-10.0293
▁boost	-10.0294
▁Canada	-10.0294
ino	-10.0297
don	-10.03
▁Sun	-10.0311
▁College	-10.0313
av	-10.0322
▁citizens	-10.0323
▁Central	-10.033
▁CEO	-10.0332
▁scoring	-10.0332
med	-10.0334
▁gives	-10.0338
▁shocked	-10.034
▁Club	-10.0347
nk	-10.0351
▁tree	-10.0355
▁conduct	-10.0359
▁assistant	-10.0361
▁Afghan	-10.0365
▁horse	-10.038
▁surrounding	-10.0382
▁MPs	-10.0382
▁Professor	-10.0393
▁equipment	-10.0401
▁route	-10.0401
oc	-10.0405
▁absolutely	-10.0418
▁produced	-10.0419
▁35	-10.042
▁Cambridge	-10.0428
▁Virginia	-10.043
▁pop	-10.0432
▁debut	-10.0432
▁reveal	-10.0434
▁31	-10.0443
rate	-10.0456
▁Per	-10.0461
▁failing	-10.0463
▁wild	-10.0467
▁pull	-10.047
▁commercial	-10.0472
▁du	-10.048
ug	-10.0481
Ma	-10.0488
▁Steven	-10.0493
▁Fox	-10.0497
▁chain	-10.0498
▁protection	-10.0505
▁adult	-10.0516
▁criticism	-10.0517
▁killer	-10.0518
lor	-10.0524
▁declined	-10.0531
tan	-10.0533
vin	-10.0534
▁repeatedly	-10.0538
▁freedom	-10.0543
▁Attorney	-10.0544
▁sources	-10.0544
tz	-10.0549
▁environment	-10.0552
▁net	-10.0557
▁catch	-10.0558
▁Tim	-10.0558
▁rates	-10.0561
▁Mal	-10.0564
X	-10.0569
▁split	-10.0581
▁suggest	-10.0592
&	-10.0594
hour	-10.0596
▁celebrate	-10.0597
▁surprise	-10.0605
▁stands	-10.0608
▁Kevin	-10.0609
des	-10.061
▁sites	-10.061
▁Cla	-10.0619
▁shut	-10.062
▁Men	-10.0622
▁cuts	-10.0623
ray	-10.0623
uck	-10.0624
▁semi	-10.0626
▁cool	-10.0629
▁leadership	-10.0633
▁secretary	-10.0633
▁income	-10.0635
▁multi	-10.0636
▁Kelly	-10.0639
▁measure	-10.0642
▁Foreign	-10.0643
▁pet	-10.0648
▁£4	-10.0653
air	-10.0654
▁Sal	-10.0655
▁pe	-10.0657
▁Tour	-10.0664
▁struggling	-10.0666
law	-10.0683
ji	-10.0683
lar	-10.0685
▁develop	-10.0686
▁Ge	-10.0692
▁add	-10.0698
▁books	-10.07
▁Birmingham	-10.0701
▁colleagues	-10.0706
▁unique	-10.071
▁sight	-10.0711
par	-10.0714
▁knee	-10.0717
▁disaster	-10.0722
▁status	-10.0734
▁writing	-10.0738
▁Over	-10.0741
▁fifth	-10.0754
▁mum	-10.0757
▁wake	-10.0763
▁setting	-10.0766
▁Te	-10.0768
▁bright	-10.0769
▁Those	-10.0772
▁stood	-10.0775
▁targeted	-10.0776
▁user	-10.0784
▁Nations	-10.0792
bar	-10.0797
▁Rob	-10.08
▁Tottenham	-10.0805
▁meaning	-10.0807
▁secure	-10.0808
▁luxury	-10.0808
▁winter	-10.0808
▁offers	-10.0811
▁fat	-10.0812
▁trend	-10.0818
▁Read	-10.0824
▁lawyers	-10.0827
▁limit	-10.0828
▁Turkey	-10.0834
▁militants	-10.0846
pi	-10.0848
▁shift	-10.0849
▁related	-10.085
oo	-10.0851
▁fears	-10.0863
▁worried	-10.0864
▁knows	-10.0866
mph	-10.0873
▁Championship	-10.0875
▁influence	-10.0884
▁Tri	-10.0893
▁emotional	-10.0896
▁Jordan	-10.09
▁governor	-10.0901
▁urged	-10.0904
form	-10.092
Re	-10.0922
rk	-10.0922
▁declared	-10.0935
▁email	-10.0948
▁session	-10.0965
▁Force	-10.097
har	-10.0974
▁Navy	-10.0976
▁tragedy	-10.0983
▁2001	-10.0998
▁inspired	-10.1002
▁knife	-10.1004
▁photograph	-10.1007
▁li	-10.1009
▁Supreme	-10.1011
▁2002	-10.1014
▁Adam	-10.1024
tu	-10.1028
▁angry	-10.103
▁Long	-10.1033
▁2015	-10.1048
▁devices	-10.105
ib	-10.1056
▁parent	-10.1059
▁Zealand	-10.1066
▁Morgan	-10.1067
▁enter	-10.1069
▁map	-10.107
▁respond	-10.1074
▁Wall	-10.1075
▁additional	-10.1075
▁involving	-10.1077
▁sick	-10.1084
▁duty	-10.1086
American	-10.1089
▁lines	-10.1093
▁Scottish	-10.1096
▁exchange	-10.1097
und	-10.1098
▁announcement	-10.111
▁steps	-10.111
▁blame	-10.1114
▁returning	-10.1114
▁planet	-10.1119
hy	-10.1119
berg	-10.112
very	-10.1121
▁politics	-10.1122
vis	-10.1124
qu	-10.1134
▁entered	-10.1137
▁directly	-10.1139
▁Ki	-10.1143
10	-10.115
▁allowing	-10.1152
▁drivers	-10.1154
▁temperatures	-10.1155
ade	-10.1159
At	-10.1159
tain	-10.1163
▁fund	-10.1179
▁reading	-10.1184
▁48	-10.1198
▁stick	-10.1198
▁photographs	-10.12
▁Agency	-10.1201
▁standards	-10.1205
foot	-10.1213
▁introduced	-10.1216
▁award	-10.1218
▁flag	-10.1229
▁Bre	-10.1234
▁affair	-10.1237
,500	-10.1241
ration	-10.1243
▁task	-10.1249
▁song	-10.126
▁raid	-10.1263
▁Beach	-10.127
▁Human	-10.1277
▁Institute	-10.1278
▁Ferguson	-10.1283
▁stolen	-10.1289
▁grew	-10.1294
iv	-10.13
▁weapon	-10.1304
▁wounded	-10.1306
▁specific	-10.1316
▁sa	-10.1316
▁gain	-10.1316
▁hat	-10.1319
▁glass	-10.1324
▁Davis	-10.1326
▁accounts	-10.1328
▁blog	-10.1328
▁Iraqi	-10.1333
si	-10.1333
▁tiny	-10.1344
▁investment	-10.1344
▁Arizona	-10.1353
▁Miller	-10.1355
▁beauty	-10.1361
▁YouTube	-10.1364
▁sky	-10.1366
▁passenger	-10.1373
gue	-10.1374
▁climate	-10.1374
▁receiving	-10.138
▁soldier	-10.1381
▁Fire	-10.1384
▁tend	-10.1388
▁adults	-10.1391
▁upset	-10.1393
cy	-10.1394
▁fled	-10.1394
▁Japanese	-10.1397
▁questioned	-10.1397
▁Children	-10.1397
rin	-10.1427
By	-10.1429
ette	-10.1436
▁section	-10.1443
▁plot	-10.1443
▁completed	-10.1447
ink	-10.1448
▁drove	-10.145
▁Y	-10.1452
▁river	-10.1459
▁tea	-10.1459
▁falling	-10.1462
istic	-10.1471
▁guests	-10.1479
▁deliver	-10.1486
▁resort	-10.1488
chi	-10.1495
▁profile	-10.15
▁fighters	-10.1509
▁disorder	-10.1511
▁Rooney	-10.1513
▁encourage	-10.1514
▁deadly	-10.1522
▁retired	-10.1525
▁ambulance	-10.1529
▁incredible	-10.1531
▁relatives	-10.1531
▁owned	-10.1532
▁discuss	-10.1537
▁sending	-10.1537
▁gr	-10.1538
tch	-10.1547
▁advantage	-10.1549
▁hasn	-10.155
▁Ford	-10.1551
▁flu	-10.1553
▁seconds	-10.1561
▁Matthew	-10.1565
▁Alan	-10.1587
▁scale	-10.1589
style	-10.1601
▁Miami	-10.1607
▁dating	-10.161
▁Before	-10.1614
▁professor	-10.1615
▁Gar	-10.1621
▁Mourinho	-10.1629
▁background	-10.1629
▁Hotel	-10.1636
▁illness	-10.1644
▁auction	-10.1645
▁Villa	-10.1647
▁Southampton	-10.1648
▁danger	-10.1649
ments	-10.165
ator	-10.1652
▁turning	-10.1653
▁circumstances	-10.1654
▁Medical	-10.1654
▁edge	-10.1656
▁necessary	-10.1662
▁Ministry	-10.1665
▁activities	-10.167
▁funding	-10.1678
▁Commission	-10.1681
▁greater	-10.1689
▁enjoyed	-10.1689
▁businesses	-10.1693
ec	-10.1693
▁ski	-10.1694
▁GOP	-10.1698
▁survived	-10.1701
▁bedroom	-10.1701
▁species	-10.1704
▁province	-10.1715
▁Kennedy	-10.172
▁Sky	-10.1723
▁bringing	-10.1726
▁Bas	-10.1728
▁Here	-10.1728
▁wore	-10.1729
▁determine	-10.1736
▁#	-10.1736
▁1,000	-10.1738
▁compete	-10.1741
light	-10.1742
▁Putin	-10.1745
▁Argentina	-10.1748
All	-10.1752
▁Diego	-10.1757
pped	-10.1758
▁stock	-10.1758
▁neighborhood	-10.176
▁beating	-10.1766
▁kitchen	-10.1779
▁counter	-10.1779
▁document	-10.1781
▁Hong	-10.1783
▁effective	-10.1783
▁Abu	-10.1783
▁jet	-10.1792
▁solution	-10.1802
▁Far	-10.1816
▁complaint	-10.1817
▁option	-10.1817
▁em	-10.1818
▁lay	-10.1819
▁active	-10.1823
▁elections	-10.1826
▁regard	-10.1838
▁Instead	-10.1842
▁rival	-10.1847
▁flights	-10.1852
▁Hi	-10.1858
▁threats	-10.1864
▁symptoms	-10.1865
▁Costa	-10.1866
▁individuals	-10.1866
▁Am	-10.1867
▁suggests	-10.1884
eg	-10.1889
▁keen	-10.1896
▁tackle	-10.1901
▁presence	-10.1904
▁capture	-10.1917
▁science	-10.1919
▁sad	-10.192
▁prosecution	-10.1929
▁mouth	-10.193
▁journalist	-10.1932
▁truth	-10.1935
▁2000	-10.1936
▁uses	-10.1937
▁Mi	-10.1938
▁aren	-10.1938
▁initial	-10.1939
▁dressed	-10.194
▁suspects	-10.194
▁im	-10.1944
▁DNA	-10.1945
▁tells	-10.1945
com	-10.1947
▁hunt	-10.1951
▁zone	-10.1952
worth	-10.1954
▁Kong	-10.1955
▁regularly	-10.1959
stone	-10.1964
▁Stadium	-10.1975
▁Mor	-10.1979
ations	-10.1983
▁providing	-10.1984
▁damaged	-10.1984
▁dance	-10.1986
▁Suarez	-10.1995
▁memory	-10.1996
▁Colorado	-10.2001
▁confident	-10.2003
▁Gra	-10.2009
down	-10.2012
▁spoken	-10.2013
ology	-10.2017
war	-10.2017
▁Com	-10.2019
▁direction	-10.2026
▁originally	-10.203
▁2011,	-10.2034
▁Cu	-10.204
▁notice	-10.2047
▁larger	-10.2066
ide	-10.2067
▁balance	-10.2073
▁possession	-10.2074
ct	-10.2084
▁increasingly	-10.2084
▁chest	-10.2087
▁Duchess	-10.2087
▁sides	-10.2089
born	-10.2092
▁Yorkshire	-10.2097
▁rushed	-10.2098
▁policies	-10.2099
mal	-10.2103
▁Ab	-10.2108
▁plastic	-10.2111
▁anniversary	-10.2114
▁Everton	-10.2118
▁limited	-10.2125
ye	-10.2128
▁crashed	-10.2129
▁shots	-10.2141
ium	-10.2145
▁primary	-10.2146
▁Pan	-10.2146
▁episode	-10.2154
▁behavior	-10.2157
▁destroyed	-10.2158
▁Bel	-10.2162
▁Evans	-10.2164
▁Rep	-10.2169
▁mayor	-10.2174
▁maybe	-10.2175
ect	-10.2178
▁Ronaldo	-10.218
▁Parliament	-10.2181
rib	-10.2182
▁Centre	-10.2189
▁Fa	-10.2193
▁choose	-10.2195
▁buildings	-10.2196
▁explain	-10.2196
▁pushed	-10.22
▁agents	-10.22
ER	-10.2202
▁struggle	-10.2204
▁Northern	-10.2204
▁44	-10.2205
ake	-10.2207
cl	-10.2208
▁Messi	-10.2212
▁prepare	-10.2215
▁nu	-10.2219
▁Bob	-10.222
▁ear	-10.2221
▁minor	-10.2222
▁airline	-10.2223
▁babies	-10.2225
▁i	-10.2235
▁500	-10.2242
▁beaten	-10.2245
▁Mexican	-10.2245
▁1990	-10.2246
▁moments	-10.2247
▁apart	-10.2253
▁management	-10.2258
▁saved	-10.2262
ella	-10.2265
▁Gary	-10.2265
hand	-10.2266
▁chair	-10.227
▁nurse	-10.227
▁»	-10.2275
▁argued	-10.2277
▁Elizabeth	-10.2281
▁wave	-10.2282
nce	-10.2282
▁inquest	-10.2285
▁Hart	-10.2288
▁Research	-10.229
sha	-10.2291
du	-10.2291
▁wine	-10.2299
▁ABC	-10.2301
take	-10.2305
▁extreme	-10.2306
▁Iranian	-10.231
▁prosecutor	-10.2311
▁Jim	-10.2312
▁strength	-10.2314
▁bigger	-10.2316
▁broadcast	-10.2321
half	-10.2324
▁joint	-10.233
▁55	-10.2331
▁sparked	-10.2333
ski	-10.2335
▁link	-10.2341
15	-10.2348
▁Cook	-10.2355
▁Dem	-10.2355
▁stress	-10.2362
▁Milan	-10.2363
▁understood	-10.2367
▁dozens	-10.2367
▁qu	-10.2369
▁bear	-10.2374
▁Dis	-10.238
▁explosion	-10.2382
▁Defense	-10.2385
▁verdict	-10.2385
▁Inter	-10.2385
▁clubs	-10.2398
pre	-10.2401
▁interested	-10.2413
▁sought	-10.2433
▁Miliband	-10.2435
q	-10.2439
12	-10.2442
▁supply	-10.2444
▁identity	-10.245
mber	-10.2455
▁located	-10.2458
▁jump	-10.2466
▁combat	-10.247
▁plea	-10.2471
▁lucky	-10.2482
sex	-10.2494
are	-10.25
▁legislation	-10.2508
▁Foundation	-10.2511
▁Ball	-10.2514
▁facility	-10.2514
These	-10.2515
▁Atlanta	-10.252
▁bike	-10.2521
▁conversation	-10.2522
▁Fo	-10.2525
▁Kent	-10.2528
▁rocket	-10.2535
▁bottle	-10.2543
▁Cal	-10.2544
ough	-10.2548
▁Olympics	-10.2555
▁Ohio	-10.2559
▁generation	-10.2565
▁ongoing	-10.2568
▁potentially	-10.257
▁degree	-10.257
▁witnesses	-10.257
▁Conservative	-10.2574
▁accepted	-10.2579
▁300	-10.2582
ara	-10.2583
▁Why	-10.2583
▁knowledge	-10.2587
▁eastern	-10.2587
▁effects	-10.2588
▁Trust	-10.2591
▁grave	-10.2599
▁landing	-10.2599
▁holds	-10.2599
▁metal	-10.2602
▁1,	-10.2603
▁Well	-10.2607
▁distance	-10.2608
▁easily	-10.262
▁bond	-10.2623
▁Oscar	-10.2623
▁acting	-10.2631
▁proved	-10.2635
▁75	-10.2636
▁ca	-10.264
▁Phil	-10.264
▁cameras	-10.264
▁rising	-10.2642
▁Ku	-10.2645
▁Arab	-10.2647
14	-10.265
▁Show	-10.265
▁cap	-10.2651
▁Dar	-10.2653
▁2012,	-10.2654
more	-10.2658
▁busy	-10.2658
▁Sterling	-10.266
▁recovered	-10.2662
▁Pu	-10.2668
▁square	-10.2669
▁Massachusetts	-10.2669
▁changing	-10.2672
▁Up	-10.2681
▁meat	-10.2684
▁Moscow	-10.2688
▁housing	-10.2688
▁bridge	-10.2689
▁leaves	-10.2692
can	-10.2694
▁Six	-10.27
▁2016	-10.2701
▁proposed	-10.2707
▁intended	-10.2712
▁vast	-10.2715
list	-10.2724
▁See	-10.2731
▁calm	-10.2737
▁featured	-10.2739
▁tight	-10.2741
▁Love	-10.2745
ob	-10.2745
▁creating	-10.2749
▁Anderson	-10.2755
▁Saudi	-10.2759
▁reflect	-10.2763
▁teen	-10.2769
▁rejected	-10.2769
▁stuff	-10.2769
▁employee	-10.2779
▁visiting	-10.2779
ale	-10.2782
▁Ian	-10.2789
▁Beijing	-10.279
▁Harris	-10.2793
▁medal	-10.2795
▁Allen	-10.28
▁videos	-10.2802
ld	-10.2803
▁47	-10.2809
▁46	-10.2816
▁experienced	-10.2817
ball	-10.2822
▁stores	-10.2823
▁deputy	-10.2827
▁divorce	-10.2844
mates	-10.2844
▁hole	-10.2847
▁colour	-10.2857
▁flood	-10.2857
▁Manhattan	-10.2861
ix	-10.2866
▁Cross	-10.2867
▁Henry	-10.2871
▁travelling	-10.2874
▁publicly	-10.2876
▁filmed	-10.2877
bed	-10.2879
▁contacted	-10.2881
yn	-10.2884
minute	-10.2885
▁possibility	-10.2887
▁delivered	-10.2888
▁Khan	-10.2893
▁communities	-10.2896
▁fa	-10.2897
val	-10.2898
▁dollars	-10.29
▁identify	-10.2901
▁j	-10.2901
water	-10.2903
▁opinion	-10.2904
▁welcome	-10.2916
▁remote	-10.2918
▁historic	-10.292
▁rich	-10.2924
vers	-10.2928
▁maintain	-10.2931
▁Jan	-10.2934
▁fought	-10.2941
▁ticket	-10.295
ane	-10.2957
▁helicopter	-10.2957
People	-10.296
▁arrival	-10.2962
▁mistake	-10.2966
▁smile	-10.2967
▁struggled	-10.2981
▁sum	-10.2983
gle	-10.2988
▁chemical	-10.299
ric	-10.299
▁standard	-10.2995
cent	-10.2995
▁Jay	-10.2996
▁allows	-10.2999
▁union	-10.3006
▁II	-10.3008
▁supposed	-10.3009
▁NBC	-10.3011
▁Also	-10.3012
▁advance	-10.3014
▁Square	-10.3022
▁mountain	-10.3024
▁teachers	-10.3026
▁stadium	-10.3032
▁journalists	-10.3032
▁conservative	-10.3033
▁appropriate	-10.3035
▁suffer	-10.3037
▁earn	-10.3037
▁port	-10.3038
▁Port	-10.3041
uch	-10.3042
▁32	-10.3042
tern	-10.3043
▁nose	-10.3045
▁closer	-10.3056
▁earned	-10.3064
▁Mayor	-10.3065
▁sexually	-10.3069
▁Test	-10.3071
▁guns	-10.3073
▁stayed	-10.308
▁happening	-10.3084
▁skills	-10.3091
ral	-10.3095
Z	-10.3104
▁vice	-10.3107
▁fallen	-10.3108
▁filled	-10.3109
▁feels	-10.3109
▁noticed	-10.311
▁package	-10.3115
▁Libya	-10.3123
▁personnel	-10.3126
▁breaking	-10.3131
▁marijuana	-10.3131
yl	-10.3133
▁investigate	-10.3133
▁focused	-10.3137
▁murdered	-10.3139
▁tears	-10.3143
ition	-10.3147
▁command	-10.3147
▁faith	-10.3148
ization	-10.3148
▁lying	-10.3149
▁inquiry	-10.3151
▁unlikely	-10.3156
▁Yet	-10.3158
▁lu	-10.317
▁hate	-10.3172
▁label	-10.3177
▁immediate	-10.3179
▁pub	-10.318
▁code	-10.3181
▁veteran	-10.3183
▁Only	-10.3188
een	-10.319
wing	-10.3192
▁gathered	-10.3192
▁write	-10.3193
hor	-10.3201
week	-10.3205
▁performed	-10.3211
▁Asia	-10.3213
▁2010,	-10.3216
40	-10.3218
▁Brian	-10.3219
▁era	-10.3227
▁Lady	-10.3228
star	-10.3231
▁Ash	-10.3233
▁Web	-10.3234
▁developing	-10.3235
▁Alexander	-10.3235
▁Who	-10.3236
▁fatal	-10.3239
▁attempts	-10.324
ano	-10.3242
ens	-10.3256
▁tie	-10.3258
▁offences	-10.3264
ants	-10.3266
▁client	-10.327
▁suspicion	-10.3277
▁Egyptian	-10.3281
▁NFL	-10.3287
▁conducted	-10.3289
gate	-10.3291
▁politicians	-10.3299
▁tweet	-10.3301
▁Philip	-10.3302
▁blast	-10.3302
▁taste	-10.3303
ail	-10.3303
bs	-10.3307
▁Women	-10.3309
▁models	-10.3312
lie	-10.3315
▁coverage	-10.332
▁Instagram	-10.3323
▁49	-10.3323
▁infection	-10.3328
▁£5	-10.3329
▁spa	-10.3332
▁dramatic	-10.3336
cker	-10.3341
▁prize	-10.3343
▁Va	-10.3345
▁Out	-10.3345
▁widely	-10.3346
▁complaints	-10.3346
▁learning	-10.335
▁Wayne	-10.3354
▁lift	-10.336
▁findings	-10.3363
ola	-10.3364
qua	-10.3365
St	-10.3366
▁dispute	-10.3368
gy	-10.3372
▁tomorrow	-10.3372
▁feed	-10.3375
▁strip	-10.3376
▁causes	-10.3382
▁function	-10.3383
▁Watson	-10.3385
ters	-10.3391
▁blamed	-10.3392
▁Art	-10.3394
▁Life	-10.3394
din	-10.3396
▁gift	-10.3398
▁yellow	-10.3399
30	-10.34
▁negative	-10.3402
▁Hunt	-10.3402
▁pieces	-10.3403
▁smaller	-10.3407
▁Duke	-10.3409
▁surprised	-10.341
▁presented	-10.3413
▁overall	-10.3415
▁authority	-10.3419
▁promised	-10.342
▁ha	-10.3422
▁Like	-10.3422
▁1980	-10.3424
▁grandmother	-10.3432
▁stunning	-10.3442
▁considering	-10.3443
▁Rose	-10.3445
▁talent	-10.3448
▁Rio	-10.3449
pl	-10.3452
lb	-10.3454
▁buying	-10.3454
▁Channel	-10.3455
▁Met	-10.3459
▁bars	-10.346
▁basis	-10.3465
▁happens	-10.3467
rick	-10.347
▁fake	-10.3475
▁mostly	-10.3478
▁bathroom	-10.3492
▁inches	-10.3493
▁spring	-10.3496
Bo	-10.3503
▁cells	-10.3503
▁resources	-10.3511
▁nations	-10.3519
▁rebels	-10.352
▁seized	-10.352
▁Michelle	-10.3523
▁Once	-10.3523
▁fe	-10.3525
▁Team	-10.3526
ju	-10.3532
ute	-10.3537
▁Football	-10.3538
▁founder	-10.3539
▁Wil	-10.3539
▁$4	-10.3543
point	-10.3543
▁Catholic	-10.3545
▁FIFA	-10.3548
pic	-10.355
▁phones	-10.3551
▁prior	-10.3553
▁systems	-10.3556
▁Among	-10.3556
▁Rock	-10.3557
▁agencies	-10.3562
é	-10.3565
▁65	-10.3568
▁reputation	-10.3579
ache	-10.358
▁daughters	-10.3582
▁Hamilton	-10.3582
▁fruit	-10.3582
br	-10.3587
▁definitely	-10.3588
▁letters	-10.3594
▁contest	-10.3594
▁tragic	-10.3598
▁wood	-10.3602
ox	-10.3604
▁teenage	-10.3611
▁landed	-10.3614
▁passing	-10.362
▁greatest	-10.3627
▁editor	-10.3637
▁honour	-10.3639
▁vulnerable	-10.364
▁thrown	-10.3646
▁roof	-10.3646
▁testing	-10.3648
▁celebrity	-10.3649
cha	-10.3651
▁brothers	-10.3657
▁operating	-10.3657
▁Sc	-10.3658
cle	-10.3659
▁Qu	-10.3661
▁surveillance	-10.3663
▁object	-10.3675
burg	-10.3678
bit	-10.3682
▁hoped	-10.3683
▁Stoke	-10.3685
▁Free	-10.3686
▁viewers	-10.3688
▁celebrates	-10.3697
▁album	-10.3704
gra	-10.371
▁clinic	-10.371
but	-10.3712
▁alternative	-10.3714
▁execution	-10.3717
▁Francisco	-10.3719
▁Charlie	-10.3725
▁transport	-10.3726
▁stuck	-10.3729
▁clothing	-10.373
▁Princess	-10.3731
▁acts	-10.3732
▁internal	-10.374
▁writer	-10.3748
▁buried	-10.3759
▁options	-10.3762
▁replaced	-10.3763
▁memorial	-10.3765
▁remaining	-10.3775
▁staying	-10.378
▁sorry	-10.3786
▁uniform	-10.3793
▁gl	-10.3793
▁Luis	-10.3794
▁spell	-10.3795
▁affect	-10.3802
▁scan	-10.3803
▁swimming	-10.381
▁survive	-10.3817
▁defend	-10.3817
▁Francis	-10.3819
▁va	-10.3823
▁coalition	-10.3824
▁lunch	-10.3826
▁complained	-10.3827
▁heavily	-10.3827
▁properly	-10.3827
▁construction	-10.3828
▁possibly	-10.3831
▁trained	-10.3833
ification	-10.3834
▁afford	-10.3835
▁Museum	-10.3838
af	-10.3845
room	-10.3849
iz	-10.3851
▁Jason	-10.3852
▁golf	-10.3853
ese	-10.3854
▁abandoned	-10.3858
▁driven	-10.3859
lia	-10.3862
▁classic	-10.3865
▁alarm	-10.3867
▁candidates	-10.3869
ched	-10.3869
▁conviction	-10.3871
▁Gen	-10.3873
▁chose	-10.3875
▁goalkeeper	-10.388
▁numerous	-10.3883
▁voted	-10.3895
▁largely	-10.3899
ue	-10.3902
van	-10.3905
▁approved	-10.3908
▁tape	-10.3911
▁Euro	-10.3913
▁supported	-10.3919
▁quiet	-10.3921
▁Q	-10.3922
▁mine	-10.3932
▁terrorism	-10.3936
▁privacy	-10.3938
▁dismissed	-10.3941
▁impressive	-10.3942
▁38	-10.3946
top	-10.395
▁presenter	-10.3953
bury	-10.3959
▁mom	-10.3961
▁basic	-10.3962
▁Dutch	-10.3963
▁specialist	-10.3967
▁20-	-10.3972
▁Public	-10.398
▁detail	-10.3985
ability	-10.3986
▁Best	-10.3986
▁pot	-10.3989
▁grown	-10.399
▁organisation	-10.3991
▁affiliate	-10.3995
▁challenges	-10.3997
▁museum	-10.3998
▁tested	-10.4001
▁cheer	-10.4004
▁shoes	-10.4007
▁novel	-10.4007
era	-10.4014
▁increasing	-10.4016
▁Sheriff	-10.4019
▁pupils	-10.4026
▁heading	-10.4029
▁Graham	-10.4031
▁funds	-10.4031
▁awarded	-10.4033
▁stabbed	-10.4033
▁commitment	-10.4033
▁argue	-10.4037
▁Em	-10.4042
ties	-10.4043
lum	-10.4043
mis	-10.4044
▁dealing	-10.4049
▁elderly	-10.4058
▁headed	-10.4065
▁commander	-10.4065
▁films	-10.4069
▁crack	-10.407
▁Terry	-10.407
▁whatever	-10.4077
▁Officials	-10.4079
cra	-10.4083
▁Santa	-10.4084
▁h	-10.4087
▁smart	-10.4093
▁license	-10.4093
▁tourists	-10.4093
▁Ken	-10.4095
final	-10.4099
▁channel	-10.41
▁strategy	-10.41
ock	-10.4104
▁purchase	-10.4107
▁yourself	-10.4108
▁Anna	-10.4111
dor	-10.4111
▁Republic	-10.4114
ky	-10.4115
▁Mother	-10.4117
▁controversy	-10.4118
win	-10.4122
▁Joseph	-10.4126
▁outfit	-10.4127
▁granted	-10.4127
uk	-10.4129
▁adds	-10.4129
▁About	-10.413
One	-10.4131
▁37	-10.4134
▁critics	-10.4137
▁Canadian	-10.4139
▁ocean	-10.4139
▁Valley	-10.414
▁associated	-10.4147
▁noted	-10.4149
▁string	-10.4152
▁Vegas	-10.4153
▁Las	-10.4156
lea	-10.4156
▁Cre	-10.416
▁disappeared	-10.4162
bal	-10.4162
▁Ray	-10.4165
▁arrive	-10.4168
tting	-10.4174
▁houses	-10.4175
▁52	-10.4176
kh	-10.418
▁decisions	-10.4181
▁exposed	-10.4181
▁Ashley	-10.4184
▁cards	-10.4186
fl	-10.4186
▁warrant	-10.4187
▁Bal	-10.4187
▁Radio	-10.4196
▁Ci	-10.4199
▁thank	-10.4205
11	-10.4206
▁outbreak	-10.4207
▁lifestyle	-10.4214
▁argument	-10.4215
▁quit	-10.4217
▁USA	-10.4217
▁Gold	-10.4226
lon	-10.4227
cal	-10.4232
25	-10.424
▁insists	-10.424
▁civilians	-10.4242
eb	-10.4243
▁Melbourne	-10.4246
▁Spring	-10.4247
▁seats	-10.4248
zy	-10.4252
fully	-10.4254
▁Han	-10.4257
▁replace	-10.4258
▁aggressive	-10.4262
▁silver	-10.4264
▁rose	-10.4264
sk	-10.4266
▁worldwide	-10.4271
▁reward	-10.428
tel	-10.4281
▁Moore	-10.4283
▁humans	-10.4283
▁bra	-10.4285
▁fix	-10.4286
centre	-10.4286
▁Justin	-10.4288
▁£7	-10.4289
▁Rights	-10.4289
▁Jr	-10.429
▁bags	-10.4292
▁clip	-10.4292
▁favorite	-10.4294
▁escaped	-10.4296
▁remarks	-10.4301
▁flow	-10.4302
▁drama	-10.4307
▁sweet	-10.4308
▁Back	-10.4308
▁Wal	-10.4309
made	-10.4312
▁festival	-10.4315
▁sons	-10.4317
▁Stone	-10.432
▁relations	-10.4323
▁Patrick	-10.4323
▁collapsed	-10.433
▁trick	-10.4334
▁talked	-10.4336
▁dozen	-10.4336
▁brief	-10.4337
▁Cooper	-10.4338
▁Leicester	-10.4347
▁Water	-10.4348
▁Federal	-10.4351
▁raising	-10.4351
▁Irish	-10.4351
▁Pennsylvania	-10.4355
▁throw	-10.4355
▁18-	-10.4358
▁error	-10.4358
▁offensive	-10.4358
ram	-10.436
▁Robinson	-10.436
▁hero	-10.4363
▁pen	-10.4373
hr	-10.4376
▁chances	-10.4376
▁equal	-10.4383
▁tennis	-10.4388
▁prisoners	-10.4394
▁friendly	-10.4395
▁Guard	-10.4395
▁resident	-10.4399
▁Little	-10.4404
▁monitor	-10.4404
▁Jonathan	-10.4409
▁flew	-10.4409
▁Top	-10.441
▁easier	-10.4413
▁studies	-10.4417
▁established	-10.4418
pper	-10.4422
ari	-10.4424
▁plus	-10.4425
▁patrol	-10.4428
▁immigrants	-10.4434
▁Second	-10.4435
▁admits	-10.4437
▁obviously	-10.4441
je	-10.4444
▁Nor	-10.4449
▁abroad	-10.4453
▁parking	-10.4456
▁activists	-10.446
▁iPad	-10.4464
fall	-10.4468
▁Airlines	-10.4476
▁anger	-10.4478
▁1970	-10.4481
▁radical	-10.4483
▁Boy	-10.4484
ken	-10.4485
▁Kerry	-10.4485
▁Walker	-10.4487
ston	-10.4488
▁stomach	-10.4494
▁da	-10.4498
▁gate	-10.4502
cho	-10.4502
rt	-10.4506
▁require	-10.4508
▁Wenger	-10.4509
▁targets	-10.451
▁intention	-10.4512
▁Edward	-10.4513
▁structure	-10.4518
▁vital	-10.452
▁terrorists	-10.4521
▁42	-10.4524
rated	-10.4524
▁lady	-10.4527
▁guys	-10.4536
▁si	-10.4539
▁waste	-10.4544
▁inter	-10.4545
lock	-10.4545
▁weren	-10.4546
book	-10.4548
ons	-10.4551
▁desperate	-10.4558
put	-10.4558
▁stepped	-10.4559
ore	-10.4559
▁gap	-10.4559
13	-10.4561
▁sand	-10.4564
read	-10.4574
▁lights	-10.4575
▁pointed	-10.4575
▁engine	-10.4576
fu	-10.4576
▁manage	-10.4581
▁nor	-10.4584
▁Roy	-10.4584
▁approached	-10.4585
▁continuing	-10.4586
▁platform	-10.4586
bra	-10.4588
▁procedure	-10.4589
▁alert	-10.4591
▁Pen	-10.4598
▁referred	-10.4606
▁shelter	-10.4606
ita	-10.4613
▁realised	-10.4616
▁pregnancy	-10.462
ire	-10.462
▁Hull	-10.4622
▁Bayern	-10.4624
▁wonderful	-10.4624
▁cloud	-10.4624
ala	-10.4626
▁Ya	-10.4627
▁listed	-10.4628
threw	-10.4631
▁heads	-10.464
▁Ol	-10.4647
gh	-10.4651
17	-10.4653
cher	-10.4654
▁threatening	-10.4656
ular	-10.4658
cor	-10.4668
dle	-10.4671
▁Jon	-10.4673
▁Jamie	-10.4674
80	-10.4675
▁reduced	-10.4676
▁plenty	-10.468
▁everybody	-10.4681
mic	-10.4682
rac	-10.4683
▁drawn	-10.4683
▁trees	-10.4687
▁Student	-10.4687
▁relief	-10.4687
acy	-10.4689
▁willing	-10.469
▁promote	-10.469
▁Nazi	-10.4695
▁CCTV	-10.4695
▁Time	-10.4697
▁Ann	-10.4709
▁Jean	-10.4713
▁knowing	-10.4715
▁backed	-10.4715
▁soft	-10.4716
sey	-10.4725
▁Rodgers	-10.4725
▁cocaine	-10.4736
▁cutting	-10.4737
▁Land	-10.4739
▁criticised	-10.474
▁£6	-10.4741
▁Ch	-10.4742
▁none	-10.4743
▁feared	-10.4746
▁atmosphere	-10.4748
sur	-10.4748
▁defendant	-10.4751
▁rivals	-10.4756
▁tied	-10.4756
▁followers	-10.4758
Do	-10.4758
▁regret	-10.4759
place	-10.4761
▁deeply	-10.4761
▁Pakistani	-10.4762
▁champions	-10.4766
▁Director	-10.4771
ign	-10.4777
ack	-10.4778
▁satellite	-10.4786
free	-10.4786
▁reference	-10.4786
▁Min	-10.4786
▁Ty	-10.479
▁excited	-10.4793
▁handle	-10.4803
▁Jennifer	-10.4805
▁Christopher	-10.4806
▁Fort	-10.4808
▁trail	-10.4813
▁guide	-10.482
▁Still	-10.4821
▁medication	-10.4824
▁Power	-10.4825
▁comfort	-10.4826
▁Asian	-10.4829
▁Tra	-10.4833
ash	-10.4835
▁worry	-10.4837
▁Bull	-10.4838
▁winds	-10.4841
▁toilet	-10.4841
▁fitness	-10.4842
▁native	-10.4843
▁customer	-10.4851
▁unless	-10.4851
▁roll	-10.4852
dom	-10.4853
▁Live	-10.4855
▁pose	-10.4857
▁Gov	-10.486
ew	-10.4862
▁drunk	-10.4862
▁prompted	-10.4865
▁coffee	-10.487
bel	-10.487
▁Ban	-10.4873
▁NATO	-10.4873
aving	-10.488
▁favour	-10.488
del	-10.488
▁empty	-10.4881
▁dry	-10.4883
▁studio	-10.4889
▁proposal	-10.4892
og	-10.4895
▁Local	-10.4897
▁pack	-10.4899
ova	-10.4901
▁Pope	-10.4901
▁discovery	-10.4902
▁GP	-10.4906
▁rooms	-10.4909
▁Associated	-10.491
▁Par	-10.4911
▁somebody	-10.4911
rop	-10.4914
wan	-10.4916
▁flash	-10.4916
▁denies	-10.4916
▁Marine	-10.492
▁print	-10.4922
ks	-10.4926
ily	-10.4927
▁gym	-10.4927
▁consumers	-10.4928
▁comfortable	-10.493
▁switch	-10.4931
Some	-10.4932
▁Hughes	-10.4933
▁10-	-10.4934
▁na	-10.4935
▁Pri	-10.4935
▁15-	-10.4938
▁Gaza	-10.4944
▁Dave	-10.4945
▁concluded	-10.4946
▁forecast	-10.4946
▁Emma	-10.4947
▁elected	-10.4954
▁doors	-10.4957
▁recording	-10.4958
app	-10.4958
▁exist	-10.4959
▁150	-10.4962
▁leak	-10.4963
▁welfare	-10.4966
▁sector	-10.4966
net	-10.4967
▁impossible	-10.4973
ency	-10.4976
▁12-	-10.4977
class	-10.4978
town	-10.4981
▁Thompson	-10.4981
▁listen	-10.4982
▁cup	-10.4982
▁bench	-10.4986
▁slightly	-10.4986
▁strict	-10.4988
ington	-10.4992
▁@	-10.4996
▁fill	-10.4996
▁1999	-10.5002
▁plays	-10.5004
▁Carl	-10.5007
mmer	-10.5012
▁moon	-10.5012
▁programs	-10.5012
▁cha	-10.5019
▁33	-10.5021
▁Mars	-10.5021
▁repair	-10.5024
some	-10.503
▁Head	-10.5034
▁jumped	-10.5036
▁closely	-10.5038
wn	-10.5038
▁Islam	-10.5039
▁locked	-10.5039
▁compensation	-10.5039
▁connect	-10.5041
▁Lauren	-10.5044
▁lock	-10.5048
▁permission	-10.5049
nu	-10.5049
▁unclear	-10.5054
▁Hernandez	-10.5055
▁ancient	-10.5055
▁truly	-10.5055
▁pace	-10.5057
▁99	-10.5058
▁adviser	-10.5058
▁Cro	-10.5058
▁disappearance	-10.5059
▁reveals	-10.5062
▁unknown	-10.5066
▁achieve	-10.5066
sky	-10.5066
▁Houston	-10.5067
degree	-10.5075
cc	-10.5077
▁Essex	-10.5079
▁behalf	-10.5082
called	-10.5083
▁predict	-10.5093
▁invited	-10.5093
ctor	-10.5094
▁strikes	-10.5105
▁contain	-10.511
mel	-10.5111
roll	-10.5112
▁Muslims	-10.5116
▁detained	-10.5118
▁supermarket	-10.5118
▁terrible	-10.5121
lf	-10.5124
▁laid	-10.5124
▁Robin	-10.5126
▁cook	-10.5129
▁blind	-10.5129
▁Lib	-10.5131
▁length	-10.5131
▁51	-10.5139
▁banks	-10.5143
▁Our	-10.5144
▁Clark	-10.5145
▁supporting	-10.5146
▁Gulf	-10.5146
▁finance	-10.5149
rant	-10.5152
▁hidden	-10.5157
hal	-10.5158
▁mix	-10.5159
▁Jessica	-10.5161
tru	-10.5166
▁Reg	-10.5166
cut	-10.5171
ott	-10.5172
▁ta	-10.5174
▁Work	-10.5174
▁testified	-10.5174
▁operate	-10.5179
▁2009,	-10.5184
60	-10.5184
▁innocent	-10.5185
▁Prosecutors	-10.5185
▁fail	-10.5188
▁extend	-10.5193
▁software	-10.52
▁hitting	-10.5201
rio	-10.5205
▁marry	-10.5206
▁scar	-10.5209
▁cleared	-10.521
lay	-10.521
▁digital	-10.5212
▁Following	-10.5218
▁Sports	-10.5219
night	-10.522
▁hide	-10.522
▁opinions	-10.5221
▁cur	-10.5221
▁Campbell	-10.5224
▁24-	-10.5225
▁spirit	-10.5229
▁Call	-10.5231
▁Sh	-10.5233
▁shocking	-10.5237
TV	-10.5237
▁36	-10.524
▁surrounded	-10.524
▁desire	-10.5244
▁Asked	-10.5249
18	-10.5257
▁Cole	-10.5263
▁Brazilian	-10.5266
▁incidents	-10.5267
”	-10.5268
▁Ph	-10.5271
▁imagine	-10.5271
With	-10.5271
▁posting	-10.5275
ify	-10.5276
ena	-10.5279
mile	-10.5281
nch	-10.5283
▁prospect	-10.5286
▁replied	-10.5288
mes	-10.5288
▁engaged	-10.5296
▁54	-10.5297
▁scenes	-10.5302
nny	-10.5303
▁Ste	-10.5304
▁joining	-10.5306
▁recalled	-10.5311
▁53	-10.5317
ened	-10.5323
▁forget	-10.5323
▁meal	-10.5325
vent	-10.5328
▁Hampshire	-10.5328
▁tickets	-10.5332
▁Ukrainian	-10.5332
▁Michigan	-10.5332
▁punishment	-10.5333
▁compound	-10.5336
▁devastated	-10.5337
▁adopted	-10.5339
▁Leeds	-10.5342
▁Swansea	-10.5344
▁occasion	-10.5344
▁Wright	-10.5348
py	-10.5349
▁Angel	-10.5353
▁Danny	-10.5365
▁surgeon	-10.5366
▁sanctions	-10.5368
▁attitude	-10.5375
▁scores	-10.5375
pen	-10.5378
On	-10.5378
▁routine	-10.5378
▁wonder	-10.5379
▁shell	-10.5383
Le	-10.5383
▁sugar	-10.5397
▁PM	-10.5397
▁Officers	-10.5399
▁badly	-10.5404
▁Missouri	-10.5408
▁aimed	-10.5409
▁Susan	-10.5411
▁ti	-10.5412
▁Ocean	-10.5416
▁Ren	-10.5418
state	-10.5418
▁assist	-10.5421
pr	-10.5421
▁Perry	-10.5422
life	-10.5425
▁defending	-10.5435
eng	-10.5437
▁tall	-10.5437
▁assistance	-10.5441
▁investigated	-10.5442
▁naked	-10.5445
▁Char	-10.5451
▁grounds	-10.5452
ult	-10.5453
▁Jeff	-10.5454
▁mention	-10.5456
De	-10.5457
▁apparent	-10.5459
▁Sunderland	-10.5465
shi	-10.5471
▁delay	-10.5474
▁pushing	-10.5474
▁minimum	-10.5477
▁fault	-10.5478
▁teeth	-10.5479
▁attacking	-10.548
▁tradition	-10.5482
▁dying	-10.5482
▁documentary	-10.5483
▁Ross	-10.5485
▁Space	-10.549
▁Stewart	-10.5493
▁crucial	-10.5494
▁suddenly	-10.5494
▁conspiracy	-10.5497
▁western	-10.5501
Ro	-10.5505
▁Gordon	-10.551
▁racist	-10.5514
▁Commons	-10.5514
two	-10.5519
▁43	-10.5519
▁$7	-10.552
▁follows	-10.5521
▁raped	-10.5527
▁milk	-10.553
▁Down	-10.5542
▁occur	-10.5545
▁enjoying	-10.5547
inch	-10.5551
▁cruise	-10.5552
▁Bell	-10.5553
ically	-10.5559
wick	-10.5563
▁favor	-10.557
▁bills	-10.557
▁preparing	-10.5571
▁Abbott	-10.5575
▁CIA	-10.5575
▁Cra	-10.5576
ef	-10.5577
▁Christie	-10.5577
▁Rome	-10.5581
▁56	-10.5582
▁Because	-10.5586
▁arriving	-10.5592
▁pocket	-10.5592
▁represent	-10.5592
▁Holland	-10.5592
▁22,	-10.5596
▁tail	-10.5599
▁stream	-10.56
▁reporter	-10.5601
load	-10.5603
▁searching	-10.5604
▁hall	-10.5605
▁corruption	-10.561
hood	-10.5611
▁Roman	-10.5615
bin	-10.5616
ea	-10.5617
▁Yu	-10.5618
▁Spe	-10.5619
▁Though	-10.5619
lee	-10.5619
▁vision	-10.562
▁Jewish	-10.562
▁Carter	-10.5621
▁ambassador	-10.5625
▁Val	-10.5627
▁electronic	-10.5629
▁riot	-10.5629
ied	-10.5631
▁paint	-10.5632
▁bombing	-10.5634
▁Academy	-10.5637
▁tower	-10.564
▁interests	-10.5641
related	-10.5649
ich	-10.565
play	-10.5653
▁chosen	-10.5654
▁relatively	-10.5655
▁sleeping	-10.5661
▁describe	-10.5662
▁chat	-10.5664
▁aim	-10.5666
iff	-10.5671
▁legend	-10.5675
▁purpose	-10.5675
▁metres	-10.5676
▁notes	-10.5678
▁Bristol	-10.5678
▁Cat	-10.5683
▁kicked	-10.5683
▁Mel	-10.5683
▁knocked	-10.5683
▁roads	-10.5686
▁Each	-10.5691
▁solely	-10.5697
▁posed	-10.5698
▁snap	-10.5699
▁shouldn	-10.5701
fire	-10.5703
wer	-10.5705
▁outcome	-10.5707
mu	-10.5709
▁Mohammed	-10.5712
▁plate	-10.5713
lli	-10.5714
▁Si	-10.5715
▁recover	-10.572
▁Pra	-10.5721
▁peak	-10.5726
fin	-10.5727
▁Care	-10.5727
▁obtained	-10.5733
▁color	-10.5741
▁exit	-10.5746
ates	-10.5746
Be	-10.5747
▁Blair	-10.5747
▁connected	-10.5749
▁mansion	-10.5756
▁Ze	-10.5756
press	-10.5757
zo	-10.5757
▁inspiration	-10.5759
▁parliament	-10.576
tar	-10.5767
▁explains	-10.5767
▁referee	-10.5771
▁tip	-10.5772
hill	-10.5773
iti	-10.5778
▁Gerrard	-10.5779
▁lies	-10.5779
▁bull	-10.5781
▁unveiled	-10.5783
▁normally	-10.5785
▁abused	-10.5785
▁fee	-10.5786
▁collect	-10.5789
▁tattoo	-10.5795
▁describes	-10.58
▁overseas	-10.5804
▁campus	-10.5805
▁motor	-10.581
▁Greece	-10.5812
SA	-10.5813
▁Anne	-10.5813
▁appearances	-10.5827
ced	-10.5828
▁rail	-10.5829
▁correct	-10.5829
▁wheel	-10.5833
▁apply	-10.5833
▁newly	-10.5836
▁destination	-10.5842
▁pink	-10.5842
▁facilities	-10.5846
▁Dallas	-10.5846
▁Plan	-10.5846
▁totally	-10.5847
▁cricket	-10.5854
▁establish	-10.586
▁Five	-10.5866
▁ultimately	-10.5871
▁39	-10.5876
▁£8	-10.5876
▁Lin	-10.5876
▁Vo	-10.588
▁intense	-10.588
▁involvement	-10.5881
ili	-10.5888
ku	-10.5891
Q	-10.5892
▁racing	-10.5892
▁understanding	-10.5896
mark	-10.5897
▁chef	-10.5902
▁iconic	-10.5902
▁mile	-10.5904
▁height	-10.5911
▁Trafford	-10.5914
▁scared	-10.5919
gal	-10.5919
▁Doctors	-10.5924
▁1998	-10.5927
▁Clegg	-10.5927
▁fantastic	-10.5931
▁frame	-10.5931
▁incredibly	-10.5932
sley	-10.5936
▁Mario	-10.5938
▁Turkish	-10.5944
▁Hillary	-10.5946
▁dedicated	-10.595
▁Cardiff	-10.5952
nar	-10.5953
▁concert	-10.5956
▁encounter	-10.5959
lk	-10.5966
▁Mer	-10.597
▁tank	-10.5972
▁extraordinary	-10.5975
til	-10.5979
▁environmental	-10.5984
▁provides	-10.5989
▁technical	-10.599
▁offence	-10.5996
▁seed	-10.6001
▁burst	-10.6001
▁$5	-10.6002
▁file	-10.6004
▁marks	-10.6005
▁kid	-10.6005
▁taxi	-10.6006
▁settlement	-10.6006
▁robbery	-10.6009
▁Bon	-10.6014
▁Camp	-10.6015
▁Helen	-10.6016
▁temperature	-10.6017
▁analysis	-10.602
nan	-10.6023
▁Jane	-10.6032
▁2-1	-10.6042
▁)	-10.6046
▁theft	-10.6049
▁commit	-10.6053
▁teaching	-10.6054
▁Ber	-10.6054
art	-10.6056
▁Sorry	-10.6063
▁Mad	-10.6066
▁Wimbledon	-10.6068
▁travelled	-10.6071
▁Palestinian	-10.6072
▁celebrities	-10.6085
▁appointment	-10.6087
Co	-10.609
▁experiment	-10.6093
▁writes	-10.6093
▁entirely	-10.6099
▁taxes	-10.6101
▁Celtic	-10.6102
▁Laden	-10.6102
▁rescued	-10.6104
▁Bruce	-10.6108
▁horrific	-10.6111
att	-10.6111
▁petition	-10.6112
▁probe	-10.6113
▁25,	-10.6115
▁breach	-10.6116
▁Nigeria	-10.6119
▁shoulder	-10.6119
vid	-10.6119
▁Lane	-10.6124
▁payments	-10.6125
▁Rod	-10.6129
▁Cam	-10.6129
▁attempting	-10.613
▁loud	-10.6135
▁Sta	-10.6136
▁permanent	-10.6141
▁opportunities	-10.6141
▁Society	-10.6146
tta	-10.6146
▁vessel	-10.6146
▁blaze	-10.615
cer	-10.615
▁2008,	-10.6153
▁hadn	-10.6154
▁Atlantic	-10.6156
die	-10.6158
▁le	-10.6159
▁accepting	-10.616
▁400	-10.6161
▁consequences	-10.6168
▁hip	-10.6184
▁laugh	-10.6185
▁informed	-10.6185
▁Key	-10.619
▁Russell	-10.6198
known	-10.6206
▁hang	-10.6207
▁17-	-10.6214
used	-10.6217
▁commission	-10.6218
▁defended	-10.622
▁maximum	-10.622
▁resolution	-10.6221
▁battery	-10.6224
▁Davies	-10.6229
▁joke	-10.6234
▁Luke	-10.6235
▁climb	-10.624
▁Mag	-10.6244
▁Ten	-10.6245
▁burn	-10.6245
▁Zimmerman	-10.6246
▁graduate	-10.6247
▁peaceful	-10.6249
▁bird	-10.625
▁Oklahoma	-10.6251
▁widespread	-10.6251
▁priority	-10.6253
▁drew	-10.6255
▁concept	-10.6255
▁Brit	-10.6257
▁demanded	-10.6258
ini	-10.6259
▁overnight	-10.6259
▁Yesterday	-10.6264
▁24,	-10.6264
▁16-	-10.6267
▁express	-10.6269
▁Neil	-10.6274
▁26,	-10.6283
▁votes	-10.6289
▁capable	-10.629
▁joy	-10.6295
amp	-10.63
eva	-10.6302
▁anywhere	-10.6305
▁stroke	-10.6306
pel	-10.6309
cus	-10.6309
▁34	-10.6309
▁del	-10.6309
▁contained	-10.6316
▁drinks	-10.6319
▁fewer	-10.6322
▁Munich	-10.6326
▁suburb	-10.6335
▁solar	-10.6339
▁Mul	-10.634
▁fur	-10.6342
▁brilliant	-10.6343
▁bullet	-10.6346
▁explore	-10.6348
▁1-0	-10.6348
▁sail	-10.635
len	-10.6351
▁Lea	-10.6354
▁risks	-10.6362
▁Edwards	-10.6367
▁30-	-10.6368
▁lie	-10.6368
▁desert	-10.637
▁Laura	-10.637
▁Greg	-10.6376
▁application	-10.6377
▁demanding	-10.6377
rr	-10.6378
47	-10.6379
▁Jimmy	-10.638
▁Del	-10.6385
▁bone	-10.6389
▁guest	-10.639
▁Roger	-10.639
▁properties	-10.6393
▁trapped	-10.6393
▁division	-10.6393
▁ministers	-10.6393
▁zoo	-10.6395
▁drawing	-10.6396
▁Win	-10.6396
▁Mil	-10.64
▁extended	-10.6405
▁pump	-10.6406
have	-10.641
did	-10.6413
ama	-10.6421
▁Lisa	-10.6425
aries	-10.6426
▁passport	-10.643
gram	-10.6431
▁proper	-10.6434
▁depression	-10.6437
▁kiss	-10.644
▁testimony	-10.6441
▁copy	-10.6444
▁birds	-10.6445
▁Stra	-10.6448
▁profit	-10.645
▁taught	-10.6451
▁25-	-10.6451
▁23,	-10.6453
▁Amanda	-10.6455
▁marked	-10.6461
▁Amazon	-10.6464
pan	-10.6464
▁sixth	-10.6465
▁Islamist	-10.6466
▁stretch	-10.6466
▁rally	-10.6466
▁2,000	-10.6471
▁smoking	-10.6491
ound	-10.6495
▁Secret	-10.6498
▁abortion	-10.651
▁Food	-10.6511
▁signal	-10.6512
▁28,	-10.6513
▁symbol	-10.6514
▁commentary	-10.6515
▁Sean	-10.6521
▁acknowledged	-10.6522
▁Chancellor	-10.6522
▁interesting	-10.6523
▁gained	-10.6525
▁Craig	-10.6528
▁dig	-10.653
▁substance	-10.6531
▁Aston	-10.6533
▁leads	-10.6535
▁Deputy	-10.6536
ches	-10.6542
▁formed	-10.6542
▁27,	-10.6544
char	-10.6544
wife	-10.6546
▁Pacific	-10.6547
▁otherwise	-10.6549
▁devastating	-10.6549
rri	-10.6558
▁fighter	-10.6558
▁shower	-10.6559
▁indicate	-10.6561
▁reporting	-10.6563
RA	-10.6563
▁Experts	-10.6571
stra	-10.6572
cat	-10.6573
▁windows	-10.6573
▁21,	-10.6574
▁factor	-10.6574
▁tries	-10.6574
▁QPR	-10.6577
▁afraid	-10.6577
▁rebel	-10.6583
▁911	-10.6584
▁contrast	-10.6586
▁revenue	-10.6586
▁yards	-10.6592
▁instance	-10.6595
ace	-10.6601
Ba	-10.6602
▁Rodriguez	-10.6604
▁sharing	-10.6608
▁Kenya	-10.6608
ture	-10.6611
▁mini	-10.6614
▁Cho	-10.6614
▁collected	-10.6615
▁NASA	-10.6618
▁Investigators	-10.6618
▁senator	-10.6622
▁begins	-10.6626
▁Scientists	-10.6627
▁variety	-10.6627
▁honest	-10.6627
▁rural	-10.6627
▁announce	-10.663
▁Fer	-10.6631
shirt	-10.6636
ory	-10.6636
▁attending	-10.6638
▁judges	-10.6641
▁Several	-10.6645
▁fortune	-10.6645
▁waves	-10.6649
▁bowl	-10.6649
▁Aaron	-10.665
▁burned	-10.665
vel	-10.665
▁stated	-10.6653
▁brave	-10.6653
▁praised	-10.6654
ddle	-10.6656
▁brutal	-10.6657
▁tonight	-10.6661
▁promise	-10.6662
▁medicine	-10.6663
▁prefer	-10.6664
▁2-0	-10.6668
▁Cur	-10.6669
▁waters	-10.6672
get	-10.6674
▁religion	-10.6677
▁walls	-10.6678
tur	-10.6681
uring	-10.6681
▁transplant	-10.6682
▁Tre	-10.6684
▁wins	-10.6687
▁officially	-10.669
▁spokesperson	-10.6691
▁hired	-10.6702
▁stem	-10.6703
▁Snowden	-10.671
▁firms	-10.6716
▁Oxford	-10.6718
▁Inc	-10.6719
▁57	-10.6727
▁operator	-10.6728
▁wounds	-10.6733
▁headquarters	-10.6737
2,000	-10.6743
▁41	-10.6744
▁ref	-10.6747
After	-10.675
▁Duncan	-10.6751
ching	-10.6757
▁rush	-10.6763
▁hospitals	-10.6764
▁lots	-10.6769
▁burning	-10.6771
▁Illinois	-10.6774
▁mask	-10.6777
▁Town	-10.6777
▁familiar	-10.6783
▁independence	-10.6787
▁Ce	-10.6787
▁Bad	-10.6787
▁cream	-10.6797
▁master	-10.68
-1	-10.68
▁crying	-10.68
▁bat	-10.6805
▁disappointed	-10.6807
▁thin	-10.6808
▁reaching	-10.6808
▁firing	-10.6811
▁demands	-10.6812
▁cor	-10.6815
▁Glasgow	-10.682
▁shops	-10.6824
▁Connecticut	-10.6825
▁Westminster	-10.6825
▁Osborne	-10.6825
▁rat	-10.6829
▁childhood	-10.6833
▁interviewed	-10.6835
▁Martinez	-10.6836
▁partners	-10.6845
▁fo	-10.6846
▁rec	-10.6851
▁Disney	-10.6854
▁updated	-10.6854
▁Hodgson	-10.6858
▁Howard	-10.6863
▁regional	-10.6864
▁featuring	-10.6867
▁ties	-10.6869
▁matters	-10.6874
▁Education	-10.6876
▁enormous	-10.6886
▁Mitchell	-10.6895
pha	-10.6897
▁Stuart	-10.69
▁formal	-10.6901
▁cable	-10.6904
▁stable	-10.6908
▁gunman	-10.6911
▁29,	-10.6915
▁Bri	-10.6918
▁Let	-10.6924
uc	-10.6926
▁Yo	-10.6926
▁Board	-10.6928
▁Bond	-10.6929
▁22-	-10.693
▁coat	-10.693
illa	-10.6932
▁Grant	-10.6933
uri	-10.6937
▁Bro	-10.6943
▁iron	-10.6945
▁web	-10.6949
▁gear	-10.6949
▁planes	-10.696
▁wealth	-10.6962
under	-10.6967
▁Jeremy	-10.697
▁Philadelphia	-10.697
▁chocolate	-10.697
▁Brooklyn	-10.697
mann	-10.6976
▁suspicious	-10.6976
(	-10.6978
▁10,000	-10.6984
▁summit	-10.6984
▁wing	-10.6985
ello	-10.6987
▁Seven	-10.6987
duct	-10.6989
▁cousin	-10.6989
▁Nigel	-10.699
▁march	-10.699
▁turns	-10.6992
▁delivery	-10.6993
▁infected	-10.6994
nell	-10.7
▁temporary	-10.7
pin	-10.7002
oli	-10.7004
▁Mid	-10.7004
▁Ward	-10.7006
▁strange	-10.7006
▁Shaw	-10.7007
▁county	-10.7008
▁Woods	-10.701
ject	-10.7012
▁Sub	-10.7013
▁disc	-10.7014
▁19,	-10.7017
▁swim	-10.7026
▁delighted	-10.7028
nder	-10.703
▁Sandy	-10.703
▁Greek	-10.7032
▁breath	-10.7041
▁apology	-10.7041
▁orders	-10.7045
bound	-10.7045
▁Cornwall	-10.7046
***	-10.7047
▁celebrated	-10.7048
▁Was	-10.7051
▁shares	-10.7051
▁awareness	-10.7054
▁Hawaii	-10.7056
eo	-10.7058
▁lake	-10.7059
▁lover	-10.7059
▁64	-10.7059
▁bizarre	-10.706
▁bi	-10.7064
▁dubbed	-10.7065
Ha	-10.7065
rich	-10.7066
▁youngest	-10.7066
▁championship	-10.7067
▁custom	-10.7071
dra	-10.7072
▁Switzerland	-10.7075
▁volunteer	-10.7077
▁improved	-10.7079
ei	-10.7079
▁CBS	-10.7081
▁ju	-10.7084
▁tourist	-10.7088
▁Democrat	-10.7095
dal	-10.7095
▁Southern	-10.7099
▁clients	-10.71
mor	-10.7103
▁recruit	-10.7104
▁Julie	-10.7105
▁exclusive	-10.7105
yo	-10.7106
▁Tan	-10.7107
▁pleased	-10.7108
▁veterans	-10.7113
key	-10.7117
▁extensive	-10.7118
3,000	-10.7125
▁effectively	-10.7127
▁par	-10.7128
▁footballer	-10.7129
▁wound	-10.7136
▁Den	-10.7138
▁n	-10.7141
▁locations	-10.7143
▁garage	-10.7147
▁58	-10.7153
▁smell	-10.7156
▁Utah	-10.7156
▁characters	-10.7156
gger	-10.7158
21	-10.7162
ED	-10.7167
▁organ	-10.7169
▁links	-10.7171
▁gender	-10.7171
▁capacity	-10.7172
▁Rick	-10.7175
▁Ram	-10.7176
▁Thailand	-10.7176
▁chicken	-10.7177
file	-10.7178
dale	-10.7189
▁registered	-10.7192
pon	-10.7193
▁UN	-10.7193
yard	-10.7194
▁Rangers	-10.7196
lam	-10.7198
▁tear	-10.7202
▁applied	-10.7204
▁thick	-10.7204
▁packed	-10.7205
▁weak	-10.7212
▁Amy	-10.7213
▁1997	-10.7224
▁performing	-10.7226
tti	-10.7227
▁micro	-10.7229
▁classes	-10.7229
▁bound	-10.723
▁earthquake	-10.7233
mat	-10.7233
▁auto	-10.7236
▁Bowl	-10.7237
▁para	-10.724
▁Had	-10.7243
▁civilian	-10.7245
▁sharp	-10.7249
▁deny	-10.7251
▁Juan	-10.7253
▁territory	-10.7258
oma	-10.7259
▁ending	-10.7267
▁31,	-10.7267
▁Seattle	-10.7267
▁approval	-10.7267
▁strain	-10.727
nic	-10.7272
▁memories	-10.7273
suit	-10.7273
▁producer	-10.7273
kes	-10.7274
▁OK	-10.7274
▁noise	-10.7276
▁Sho	-10.7277
AR	-10.7278
IS	-10.7279
▁McDonald	-10.7282
bor	-10.7282
▁Special	-10.7282
Mo	-10.7282
▁condemned	-10.7286
▁1960	-10.729
▁breathing	-10.7291
▁poses	-10.7294
▁ethnic	-10.7297
▁jacket	-10.7297
▁starts	-10.7298
▁Researchers	-10.73
▁controlled	-10.73
oon	-10.73
▁supplies	-10.7311
ax	-10.7315
▁drone	-10.7315
▁projects	-10.7317
aged	-10.7322
late	-10.7323
▁$6	-10.7327
▁Reid	-10.7327
▁fees	-10.7327
▁Friends	-10.7328
▁revolution	-10.7329
▁62	-10.733
▁passion	-10.7332
▁Hay	-10.7333
▁Alabama	-10.7336
▁McCain	-10.7336
▁grandfather	-10.7336
non	-10.7341
▁typically	-10.7342
▁Microsoft	-10.7346
▁14-	-10.7347
▁hanging	-10.7353
▁manner	-10.7354
▁venue	-10.7355
▁Services	-10.7361
▁successfully	-10.7367
▁Roberts	-10.7369
▁Mari	-10.737
▁poverty	-10.737
▁collapse	-10.7374
▁Officer	-10.7374
▁rent	-10.7376
▁brown	-10.7378
try	-10.7383
▁anybody	-10.7383
▁kit	-10.7384
▁closing	-10.7385
▁convinced	-10.7387
▁Book	-10.7387
fo	-10.7389
▁elsewhere	-10.7395
▁spill	-10.7396
▁horror	-10.74
dies	-10.7405
▁bombs	-10.7409
▁Belgium	-10.741
▁intent	-10.7413
▁poster	-10.7414
▁arrests	-10.7417
:30	-10.742
▁factory	-10.7421
▁funny	-10.7421
▁ideas	-10.7422
jan	-10.7424
▁HIV	-10.7425
plo	-10.7431
high	-10.7436
▁shore	-10.7436
▁finger	-10.7439
▁crossing	-10.744
▁colleague	-10.7441
35	-10.7443
hold	-10.7446
ets	-10.7448
▁$8	-10.7451
away	-10.7451
▁plants	-10.7451
part	-10.7455
▁communications	-10.746
bing	-10.7461
70	-10.7461
▁rifle	-10.7464
▁Collins	-10.7465
nge	-10.7466
▁competitive	-10.7469
▁exciting	-10.7469
▁inappropriate	-10.7472
▁checks	-10.7473
▁Tro	-10.7474
▁Edinburgh	-10.7474
▁aboard	-10.7476
▁diplomatic	-10.7476
▁59	-10.7483
▁cultural	-10.7488
▁Defence	-10.7489
▁detailed	-10.7493
90	-10.7493
▁u	-10.7496
▁helps	-10.7497
▁sits	-10.7497
oz	-10.7502
▁neighbour	-10.7505
▁branch	-10.7508
▁flowers	-10.7509
▁Come	-10.7514
▁referendum	-10.7519
coming	-10.7519
▁Mat	-10.7522
▁usual	-10.7523
▁grade	-10.7524
▁cake	-10.7528
▁67	-10.7528
▁hiding	-10.7529
▁screaming	-10.7532
▁cry	-10.7534
▁teenagers	-10.7537
▁attached	-10.7541
▁Heart	-10.7543
ls	-10.7545
▁bio	-10.7547
▁sentencing	-10.7549
▁Beckham	-10.756
▁existing	-10.7561
▁moral	-10.7562
▁cited	-10.7564
▁occasions	-10.7564
▁belt	-10.7564
▁consultant	-10.7566
▁opponents	-10.7568
▁wealthy	-10.7573
▁Crystal	-10.7574
▁worn	-10.7574
▁suggesting	-10.7574
▁statements	-10.7576
▁tent	-10.7579
▁genetic	-10.7586
▁motion	-10.7592
ssa	-10.7592
6,000	-10.7592
▁19-	-10.7593
▁sheriff	-10.7594
▁traveling	-10.76
▁pin	-10.7602
▁luck	-10.7602
▁initiative	-10.7604
▁celebrating	-10.7604
▁attracted	-10.7614
▁opposed	-10.7622
▁craft	-10.7624
Mar	-10.7628
▁electric	-10.7631
▁Jen	-10.7632
vy	-10.7636
▁generally	-10.7636
burn	-10.7642
▁proceed	-10.7643
vol	-10.7647
▁Knight	-10.7647
▁celebration	-10.7647
▁resulted	-10.7648
▁checked	-10.7648
▁Father	-10.7651
▁stronger	-10.7651
▁der	-10.7652
round	-10.7653
▁Cap	-10.7656
gin	-10.7658
▁movies	-10.7663
▁thoughts	-10.7665
▁Iowa	-10.7666
▁barely	-10.7668
▁conclusion	-10.7669
▁vowed	-10.7671
▁throat	-10.7685
▁9.	-10.7686
▁couples	-10.7692
▁neighbor	-10.7696
▁Journal	-10.7697
▁Portugal	-10.77
▁Swiss	-10.77
▁Cuba	-10.7702
▁opposite	-10.7705
▁painting	-10.7705
▁landscape	-10.7705
▁transition	-10.7706
teen	-10.7708
profile	-10.7711
▁requires	-10.7712
she	-10.7714
▁depict	-10.7716
▁trainer	-10.7717
▁kidnapping	-10.7721
▁Adams	-10.7724
▁ITV	-10.7725
▁athletes	-10.7726
▁Blue	-10.7727
▁neighbours	-10.7732
▁stake	-10.7733
▁appointed	-10.7735
▁importance	-10.7736
lit	-10.7736
▁emails	-10.7738
sic	-10.7738
▁entering	-10.7738
hol	-10.7739
▁PC	-10.7742
▁Cru	-10.7743
▁cub	-10.7744
▁carbon	-10.7744
▁solve	-10.7745
▁predicted	-10.7745
▁shadow	-10.7748
▁foundation	-10.7751
▁Record	-10.7756
▁Social	-10.7757
▁shark	-10.7757
ira	-10.7757
▁Devon	-10.776
▁Mali	-10.7761
▁Roma	-10.7761
▁materials	-10.7765
▁beer	-10.7768
▁blocked	-10.7769
▁Flight	-10.7776
▁Has	-10.7778
▁rugby	-10.7782
▁notorious	-10.7792
▁ordeal	-10.7792
▁acted	-10.7792
ologist	-10.7799
▁encouraged	-10.78
▁pit	-10.7801
▁rep	-10.7802
▁Margaret	-10.7802
▁combination	-10.7802
▁exhibition	-10.7805
▁aide	-10.7805
▁therapy	-10.7807
▁Federer	-10.7807
▁anonymous	-10.7807
▁robot	-10.7808
▁23-	-10.7812
itch	-10.7812
▁counsel	-10.7812
▁runner	-10.7815
▁combined	-10.7816
▁21-	-10.7819
▁detectives	-10.782
wear	-10.7823
▁Video	-10.7826
ridge	-10.7833
mond	-10.7836
ison	-10.7837
▁Lau	-10.784
Al	-10.7842
▁Qatar	-10.7843
▁Dor	-10.7848
▁basketball	-10.7848
▁types	-10.7854
▁Garcia	-10.7854
▁clock	-10.7854
adi	-10.7856
▁broad	-10.7857
▁Austin	-10.7859
election	-10.7859
ES	-10.7862
▁Row	-10.7862
▁admit	-10.7863
▁pan	-10.7873
log	-10.7873
wo	-10.7874
▁Welsh	-10.7874
▁becomes	-10.7877
▁household	-10.7877
▁Nu	-10.7878
▁mixed	-10.7879
▁entitled	-10.7879
▁Price	-10.788
▁restaurants	-10.7884
▁Sheffield	-10.7884
▁stole	-10.7888
▁moves	-10.789
nnie	-10.7894
▁Hor	-10.7899
▁Business	-10.79
▁Ger	-10.7901
▁absence	-10.7905
▁•	-10.7906
▁faster	-10.7907
▁Warren	-10.7909
▁Armstrong	-10.791
▁affairs	-10.7913
▁Kay	-10.7914
▁Fair	-10.7914
▁bitter	-10.7916
▁shame	-10.7917
▁depend	-10.792
▁migrants	-10.7921
▁advised	-10.7923
eu	-10.7926
▁63	-10.7929
▁gather	-10.793
▁grass	-10.7937
▁mess	-10.7937
pple	-10.7939
ole	-10.7939
▁dust	-10.7941
▁assaulted	-10.7941
▁electricity	-10.7943
▁Owen	-10.7944
▁papers	-10.7944
▁forest	-10.7946
▁Balotelli	-10.7947
▁Samsung	-10.7947
▁cope	-10.795
▁teens	-10.795
▁log	-10.7951
19	-10.7951
▁grabbed	-10.7952
▁Mount	-10.7952
▁attract	-10.7956
sch	-10.7957
▁Atletico	-10.7957
▁cow	-10.7962
▁reception	-10.7968
▁toddler	-10.7968
▁accusations	-10.7969
▁LA	-10.7971
▁72	-10.7972
▁Administration	-10.7973
▁expecting	-10.7975
ians	-10.7979
▁harder	-10.7979
▁Part	-10.798
▁speculation	-10.7983
▁Berlin	-10.7984
▁allies	-10.7987
▁Penn	-10.7988
Now	-10.7995
even	-10.7997
▁negotiations	-10.8
▁Commissioner	-10.8001
▁Crime	-10.8001
▁waited	-10.8003
▁Science	-10.8004
▁Gun	-10.8006
▁decline	-10.801
▁organizations	-10.8013
▁grab	-10.8015
▁Sony	-10.8017
▁advertising	-10.802
▁referring	-10.802
most	-10.8023
ria	-10.8023
▁lawmakers	-10.8024
▁powers	-10.8028
▁Kar	-10.8031
▁searched	-10.8031
His	-10.8033
▁neither	-10.8036
▁costume	-10.8036
▁ro	-10.8038
▁Powell	-10.8039
▁twin	-10.8042
▁residence	-10.8046
▁skull	-10.8046
▁represents	-10.8048
▁Yemen	-10.8051
▁repeated	-10.8052
▁Poland	-10.8053
yan	-10.8053
▁sisters	-10.8058
▁handling	-10.8059
▁impressed	-10.8061
▁throwing	-10.8062
▁procedures	-10.8063
▁ease	-10.8065
▁indicated	-10.8065
▁creation	-10.8067
▁66	-10.807
▁1994	-10.8073
▁nobody	-10.8073
▁ministry	-10.8078
An	-10.8079
▁Ky	-10.808
ancy	-10.808
▁firefighters	-10.8081
▁fence	-10.8084
▁signature	-10.8084
▁highlight	-10.8084
▁pile	-10.8085
▁retain	-10.8086
▁Arch	-10.8086
▁Fu	-10.8086
▁telephone	-10.8088
▁engineer	-10.8089
▁Every	-10.8091
maker	-10.8091
▁oldest	-10.8092
sized	-10.8094
▁fame	-10.8096
▁mystery	-10.8099
▁Max	-10.8101
▁fishing	-10.8101
▁Knox	-10.8104
▁discussed	-10.8106
▁hi	-10.8106
▁resigned	-10.8107
plan	-10.8108
▁covering	-10.8112
▁1996	-10.8116
▁assess	-10.8116
▁discover	-10.8119
▁Th	-10.8119
eat	-10.812
▁circle	-10.812
▁painful	-10.8124
▁citizen	-10.8124
▁Libyan	-10.8125
▁Bailey	-10.8126
▁pig	-10.8127
▁trophy	-10.8131
▁twist	-10.8131
▁degrees	-10.8132
16	-10.8133
▁intervention	-10.8136
▁filming	-10.8139
nie	-10.8144
▁labor	-10.8145
▁comedy	-10.8147
▁criminals	-10.8149
▁therefore	-10.8152
▁Ron	-10.8152
ique	-10.8154
▁contains	-10.8156
nov	-10.8157
New	-10.8163
▁Lawrence	-10.8163
▁appearing	-10.8163
▁essential	-10.8165
▁pension	-10.8165
bil	-10.8166
▁20,	-10.8166
▁bosses	-10.8171
▁Sur	-10.8174
▁ob	-10.8175
AN	-10.8179
▁Pentagon	-10.8184
▁el	-10.8184
▁stamp	-10.8185
isation	-10.8186
ON	-10.8188
rav	-10.8194
▁slowly	-10.8196
▁sporting	-10.8196
▁killings	-10.8197
▁sustained	-10.8199
▁Fri	-10.8204
▁industrial	-10.8211
▁Rice	-10.8212
▁homeless	-10.8212
▁18,	-10.8217
vic	-10.8217
▁triumph	-10.8221
▁infant	-10.8224
▁Winter	-10.8226
▁30,	-10.8227
▁rein	-10.8227
▁obvious	-10.8234
▁gene	-10.8236
▁boom	-10.8239
▁racial	-10.824
▁founded	-10.8246
▁Cabinet	-10.8248
▁creative	-10.8248
och	-10.8248
▁guards	-10.8249
▁king	-10.825
▁witnessed	-10.8253
▁disabled	-10.8253
▁whale	-10.8253
loss	-10.826
Ho	-10.8262
▁Dubai	-10.8264
▁silence	-10.8264
▁carrier	-10.8265
cious	-10.8266
range	-10.8271
▁adopt	-10.8271
ati	-10.8276
▁flames	-10.8278
▁loose	-10.8281
▁striking	-10.8286
▁Spi	-10.8287
▁Authority	-10.8292
TA	-10.8292
▁Sgt	-10.8292
▁soil	-10.8292
▁Dean	-10.8296
▁tr	-10.8297
▁Phillips	-10.83
rap	-10.8305
▁monitoring	-10.8307
▁recall	-10.8311
▁outrage	-10.8312
▁accompanied	-10.8313
ada	-10.8315
aff	-10.8315
▁artists	-10.8316
▁porn	-10.8319
▁Eve	-10.8322
▁visible	-10.8323
tte	-10.8332
▁bath	-10.8332
▁select	-10.8333
▁Barbara	-10.8334
4,000	-10.8335
▁Morning	-10.8336
▁su	-10.8337
▁earth	-10.8337
▁Around	-10.8338
▁selection	-10.8338
▁theater	-10.834
ado	-10.8342
▁meals	-10.8343
▁sensitive	-10.8344
▁flooding	-10.8347
▁cycle	-10.8349
▁analyst	-10.8351
▁personally	-10.8353
▁partnership	-10.8353
front	-10.8356
▁equivalent	-10.8356
ona	-10.8359
▁begun	-10.8359
▁containing	-10.8363
▁sounds	-10.8364
dan	-10.8366
▁Leader	-10.8368
24	-10.8369
with	-10.837
▁refuse	-10.8374
▁factors	-10.8374
▁estimates	-10.8377
▁representing	-10.8377
▁Donald	-10.8378
▁remarkable	-10.8384
▁collision	-10.8389
▁Whit	-10.8389
▁horses	-10.839
ean	-10.8392
▁widow	-10.8394
grad	-10.8394
zar	-10.8396
▁Colombia	-10.8397
▁positions	-10.8399
▁Charlotte	-10.8399
▁belonging	-10.84
Un	-10.8404
▁entrance	-10.8405
▁requests	-10.8406
▁uncle	-10.8407
▁volunteers	-10.8408
▁Night	-10.8411
▁retirement	-10.8412
▁Shi	-10.8413
▁orbit	-10.8413
▁engagement	-10.8414
▁react	-10.8416
▁lung	-10.8419
▁licence	-10.8421
▁opt	-10.8423
▁lifted	-10.8423
8,000	-10.8424
bon	-10.8425
▁Arabia	-10.8428
▁Sand	-10.8429
▁repeat	-10.8429
cen	-10.8435
▁tag	-10.8436
table	-10.844
▁specifically	-10.844
LA	-10.8443
▁values	-10.8446
season	-10.8451
rous	-10.8453
▁Keith	-10.8456
▁lip	-10.8457
▁guess	-10.846
▁proceedings	-10.8461
otic	-10.8461
shed	-10.8467
▁17,	-10.8468
▁End	-10.8468
▁Sanchez	-10.8471
▁rear	-10.8471
stein	-10.8472
▁winners	-10.8475
▁Civil	-10.8476
▁Rescue	-10.8476
▁fitted	-10.8477
page	-10.8477
▁£9	-10.848
▁Josh	-10.8481
▁breakfast	-10.8482
▁transferred	-10.8484
▁ne	-10.8492
▁elephant	-10.8492
▁tunnel	-10.8492
▁reforms	-10.8495
▁prominent	-10.8498
▁detention	-10.8499
▁yes	-10.85
▁strongly	-10.8501
fri	-10.8502
aging	-10.8503
▁protected	-10.8505
▁grant	-10.851
▁experiences	-10.8511
▁mock	-10.8512
RE	-10.8517
▁Fund	-10.8519
nish	-10.852
▁Alaska	-10.852
▁bomber	-10.852
▁Webb	-10.8523
▁bones	-10.8523
▁dealer	-10.8524
▁voting	-10.8526
▁Hamas	-10.8526
▁tech	-10.8527
anna	-10.853
▁debris	-10.8531
▁regulations	-10.8531
look	-10.8533
▁sponsor	-10.8533
▁Rev	-10.8534
▁Maryland	-10.8535
hen	-10.8535
xi	-10.8536
▁traveled	-10.8538
▁branded	-10.8539
▁App	-10.854
▁IS	-10.8545
▁hunting	-10.8545
▁coroner	-10.8548
▁68	-10.8552
▁Nelson	-10.8553
▁Fla	-10.8553
▁Rachel	-10.8554
▁pal	-10.8558
▁please	-10.8562
▁riding	-10.8563
▁Somalia	-10.8565
ora	-10.8565
▁spray	-10.8566
bat	-10.8574
▁crazy	-10.8575
riv	-10.858
bre	-10.8583
▁constantly	-10.8583
▁Bow	-10.8587
▁markets	-10.8591
▁activist	-10.8593
▁roughly	-10.8597
▁objects	-10.8597
looking	-10.8599
just	-10.86
▁Sy	-10.8603
▁Detroit	-10.8603
▁mirror	-10.8603
▁Staff	-10.8606
▁humanitarian	-10.8609
▁Captain	-10.8609
second	-10.8611
hop	-10.8613
▁1995	-10.8616
zer	-10.8619
▁parade	-10.8619
▁wage	-10.8622
▁fined	-10.8624
▁lessons	-10.8625
▁Hope	-10.8627
▁everywhere	-10.8627
▁lap	-10.8627
▁nervous	-10.8631
▁Gla	-10.8631
▁cheap	-10.8633
▁deals	-10.8633
▁sheet	-10.8634
eh	-10.8634
augh	-10.8636
▁popularity	-10.8636
▁criticized	-10.8636
▁contribution	-10.8637
▁Mountain	-10.8637
test	-10.8637
▁represented	-10.8639
Con	-10.864
▁shake	-10.8642
▁relative	-10.8643
▁representative	-10.8646
▁85	-10.8648
▁accuse	-10.8649
ening	-10.8653
▁draft	-10.8653
▁Golden	-10.8654
▁extent	-10.8654
▁answers	-10.8658
atory	-10.8659
▁vaccine	-10.8664
▁entry	-10.8666
▁Add	-10.8668
▁Dun	-10.8669
▁jurors	-10.867
▁departure	-10.867
rim	-10.8674
leg	-10.8678
▁Tower	-10.8678
▁frequently	-10.868
▁Mercedes	-10.8681
▁studying	-10.8684
itz	-10.869
▁Lloyd	-10.8692
▁2007,	-10.8695
▁communication	-10.8696
level	-10.8697
Ar	-10.8702
gli	-10.8704
▁preparation	-10.8709
▁visits	-10.871
▁bite	-10.871
▁Mah	-10.8711
▁rid	-10.8713
▁Tor	-10.8714
▁actual	-10.8715
▁forever	-10.8715
▁belief	-10.872
▁marketing	-10.8721
▁tweets	-10.8725
▁constant	-10.8729
▁kidney	-10.8733
▁Katie	-10.8734
▁smartphone	-10.8738
▁crop	-10.8739
▁Station	-10.8743
▁twins	-10.8743
▁elite	-10.8744
▁viewed	-10.8749
▁Stan	-10.8752
▁eggs	-10.8753
▁speaks	-10.8754
▁missile	-10.8756
▁discussion	-10.876
▁appreciate	-10.876
▁Andre	-10.8763
▁surge	-10.8766
▁headlines	-10.8768
▁meetings	-10.877
▁salt	-10.877
imp	-10.8773
▁realise	-10.8773
▁titles	-10.8777
▁Simpson	-10.8777
▁Ve	-10.878
▁cannabis	-10.8783
▁touched	-10.8784
▁vs	-10.8789
▁substitute	-10.8794
▁illegally	-10.8794
arm	-10.8797
▁deficit	-10.88
▁Soviet	-10.8805
▁core	-10.8806
▁Garden	-10.8814
▁Tru	-10.8814
▁thinks	-10.8814
▁militant	-10.8818
tric	-10.8819
▁urge	-10.882
lla	-10.882
▁Britons	-10.8823
▁afterwards	-10.8824
▁grip	-10.8828
▁fate	-10.8828
▁adapt	-10.883
lies	-10.8832
▁Bale	-10.8833
▁Hard	-10.8838
matic	-10.884
▁ships	-10.8841
▁Malaysia	-10.8843
▁democracy	-10.8853
$	-10.886
cap	-10.8861
▁Hol	-10.8862
▁Midlands	-10.8862
will	-10.8864
▁odds	-10.8865
▁Age	-10.8877
▁association	-10.8879
▁stealing	-10.8881
▁Sweden	-10.8885
▁Light	-10.8889
▁Mandela	-10.8891
▁restrictions	-10.8891
▁assessment	-10.8895
▁upper	-10.8896
▁songs	-10.8896
▁trigger	-10.89
oy	-10.8902
▁deemed	-10.8902
ifying	-10.8904
▁Coll	-10.8904
CA	-10.8907
▁recovering	-10.8907
▁defensive	-10.8908
▁Bor	-10.8908
▁Tiger	-10.8916
▁McG	-10.8919
▁scientific	-10.8919
▁Sierra	-10.892
▁bump	-10.892
▁parked	-10.892
face	-10.892
▁Short	-10.8921
▁targeting	-10.8922
▁flown	-10.8925
▁sweat	-10.8925
▁awards	-10.8928
▁Gill	-10.8929
▁Uruguay	-10.8931
▁inmates	-10.8931
▁solid	-10.8932
▁Say	-10.8932
▁stages	-10.8935
▁Eastern	-10.8935
▁hell	-10.8936
▁replacement	-10.8937
▁posts	-10.8937
▁Thatcher	-10.894
▁delayed	-10.894
pect	-10.8944
▁heroin	-10.895
▁Child	-10.8953
▁sets	-10.8954
ila	-10.8959
bert	-10.896
▁Operation	-10.896
▁salary	-10.896
▁advert	-10.8962
▁academic	-10.8965
-20	-10.8969
▁minority	-10.8969
▁treating	-10.897
▁Pictured	-10.8971
▁pulling	-10.8973
▁mere	-10.8974
▁Thank	-10.8975
▁Surrey	-10.8977
▁Trans	-10.898
▁dressing	-10.8981
▁tracks	-10.8982
▁escort	-10.8983
▁Ay	-10.8983
▁ideal	-10.8985
▁reject	-10.8986
▁deployed	-10.8986
▁AC	-10.8987
▁Mississippi	-10.8989
▁Rebecca	-10.8989
▁promotion	-10.8989
▁advanced	-10.8992
BC	-10.8994
▁spectacular	-10.8994
mmy	-10.8995
nda	-10.9
▁Scot	-10.9005
▁Clarke	-10.9005
sign	-10.9006
▁Ye	-10.9006
▁Safety	-10.9007
▁Jesus	-10.9012
▁unemployment	-10.9012
▁Forest	-10.9013
▁politician	-10.9013
How	-10.9014
▁rot	-10.9023
▁Mas	-10.9025
aj	-10.9026
▁Marco	-10.9029
▁mate	-10.9029
cial	-10.9031
▁Detective	-10.9031
▁hosts	-10.9033
▁Murphy	-10.9041
▁Serie	-10.9041
comp	-10.9042
▁Baghdad	-10.9046
▁caution	-10.9046
Mr	-10.905
▁Brad	-10.9051
▁vacation	-10.9053
▁100,000	-10.9054
▁forcing	-10.9056
▁businessman	-10.9057
▁Barry	-10.9058
▁cheek	-10.9058
▁Louisiana	-10.9064
▁Travel	-10.9065
▁continent	-10.9066
ene	-10.9067
▁typical	-10.9068
▁pending	-10.9073
▁mainly	-10.9075
▁embassy	-10.9076
▁stunt	-10.9078
▁fed	-10.9079
sure	-10.9082
yne	-10.9082
Se	-10.9084
▁dancing	-10.9087
▁tumour	-10.9093
▁Downing	-10.9094
lyn	-10.9096
▁assets	-10.9097
dar	-10.9098
▁settle	-10.9099
▁implant	-10.9099
▁leap	-10.91
▁narrow	-10.9103
▁smashed	-10.9103
▁Zoo	-10.9104
▁pride	-10.9106
▁directed	-10.911
▁relax	-10.911
▁payment	-10.9112
▁posing	-10.9113
▁foul	-10.9114
▁historical	-10.9114
▁Where	-10.9117
▁significantly	-10.9117
▁Chan	-10.9118
wide	-10.9118
mun	-10.912
▁woke	-10.9123
▁destroy	-10.9123
▁desk	-10.9124
While	-10.9125
▁Diana	-10.9125
winning	-10.9129
▁Silver	-10.9129
▁mar	-10.913
▁walks	-10.9133
▁ourselves	-10.9134
▁Yes	-10.9136
49	-10.9137
▁personality	-10.9139
▁scrap	-10.9141
rum	-10.9143
▁hundred	-10.9144
▁button	-10.9149
ux	-10.9149
▁Avenue	-10.9152
▁Spurs	-10.9152
cia	-10.9152
▁Des	-10.9154
▁Ahmed	-10.9158
▁sees	-10.9159
▁gathering	-10.9159
▁employment	-10.9161
▁donations	-10.9162
▁instrument	-10.9163
▁Sussex	-10.9163
▁nerve	-10.9163
▁hug	-10.9164
▁unfair	-10.9165
▁theory	-10.9165
▁Week	-10.9165
▁survivors	-10.9167
fect	-10.9168
▁addressed	-10.9169
ees	-10.9169
▁beneath	-10.9175
▁prop	-10.9177
▁Your	-10.9178
▁lion	-10.9178
▁resist	-10.918
▁wire	-10.9182
▁cord	-10.9183
▁Castro	-10.9183
tens	-10.9183
▁achievement	-10.9187
▁cheese	-10.9187
▁consumer	-10.9189
▁69	-10.9194
▁investors	-10.9195
▁mood	-10.9195
▁welcomed	-10.9196
▁taxpayers	-10.9198
gre	-10.92
▁relationships	-10.9203
▁portrait	-10.9205
▁achieved	-10.9207
▁seal	-10.921
hn	-10.9214
▁Comp	-10.9216
ali	-10.9223
▁admitting	-10.9224
▁Right	-10.9226
▁Manuel	-10.9229
▁neighbors	-10.9229
bedroom	-10.9232
▁grateful	-10.9234
▁terminal	-10.9235
▁swing	-10.9235
▁Biden	-10.9237
▁loving	-10.9242
▁cru	-10.9243
▁studied	-10.9246
▁26-	-10.9247
▁physically	-10.9249
▁schedule	-10.9249
ban	-10.9252
▁bride	-10.9253
▁method	-10.926
Me	-10.926
▁aside	-10.9261
▁trace	-10.9262
▁exact	-10.9263
taking	-10.9265
▁deserve	-10.9265
▁clashes	-10.9268
▁Bla	-10.9271
▁rarely	-10.9272
ivity	-10.9274
▁compromise	-10.9276
▁Tesco	-10.9276
pu	-10.9276
▁saving	-10.928
ffer	-10.9284
▁Nine	-10.9285
▁Jong	-10.9286
▁27-	-10.9286
▁trauma	-10.9287
▁bacteria	-10.9288
shaw	-10.9289
▁portion	-10.9291
▁Sport	-10.93
▁Indiana	-10.93
olo	-10.9304
▁stations	-10.9311
▁Vice	-10.9311
▁Hundreds	-10.9311
▁Wild	-10.9313
▁neuro	-10.9316
▁units	-10.9319
▁Network	-10.9323
▁Chile	-10.9326
▁principal	-10.9329
▁congressional	-10.9329
▁enemy	-10.9329
▁realized	-10.9332
▁Indonesia	-10.9333
OR	-10.9337
▁Marc	-10.9339
▁hostage	-10.934
illo	-10.934
▁viral	-10.9341
▁Douglas	-10.9341
▁crossed	-10.9341
▁exposure	-10.9347
22	-10.9347
▁stunned	-10.9348
▁Parker	-10.9349
▁warn	-10.935
▁Hav	-10.9353
▁managing	-10.9353
▁screening	-10.9354
▁Er	-10.9354
▁Gadhafi	-10.9355
▁61	-10.9358
▁£10	-10.9358
▁guidelines	-10.9359
▁polls	-10.936
▁Kris	-10.9362
▁pursue	-10.9363
▁tools	-10.9364
▁slam	-10.9365
▁Kingdom	-10.9367
▁op	-10.9371
▁indeed	-10.9371
▁reverse	-10.9372
▁Tennessee	-10.9377
▁Treasury	-10.9377
▁Victim	-10.9377
▁Oregon	-10.9389
▁infrastructure	-10.9389
▁Savile	-10.939
▁Claire	-10.939
▁Standard	-10.9395
tus	-10.9401
▁Wembley	-10.9401
▁battling	-10.9401
▁barrier	-10.9402
Assad	-10.9405
▁warnings	-10.9406
▁1993	-10.9407
▁harassment	-10.9407
▁demonstrate	-10.9411
▁torture	-10.9411
▁apps	-10.9416
▁Zu	-10.9416
▁valuable	-10.942
▁attorneys	-10.9422
-3	-10.9422
Fi	-10.9423
above	-10.9424
▁picking	-10.9427
▁Neymar	-10.9432
▁computers	-10.9435
▁safely	-10.9437
▁leaked	-10.9438
▁nomination	-10.9438
▁Sara	-10.9442
▁obtain	-10.9443
▁Governor	-10.9444
▁Memorial	-10.9444
▁probation	-10.9444
▁Holmes	-10.9444
▁opponent	-10.9444
▁expand	-10.9447
▁(1	-10.9449
▁comparison	-10.945
▁loves	-10.9453
▁guarantee	-10.9453
▁register	-10.9455
▁hammer	-10.9456
▁networks	-10.9458
▁wildlife	-10.9469
screen	-10.9473
▁wheelchair	-10.9474
▁tube	-10.9475
▁tired	-10.9477
▁recommend	-10.9477
gro	-10.9477
ica	-10.9477
▁5,000	-10.948
▁Darren	-10.9481
▁Kra	-10.9483
▁tan	-10.9485
▁purchased	-10.9485
was	-10.9491
▁Minnesota	-10.9492
▁resume	-10.9493
stand	-10.9493
lip	-10.9495
▁origin	-10.9495
▁nurses	-10.9496
▁Pet	-10.9497
▁mentioned	-10.9502
▁exploit	-10.9502
▁Hy	-10.9503
▁tensions	-10.9504
▁survival	-10.9504
▁Project	-10.9505
▁selfie	-10.9506
▁95	-10.9507
▁layer	-10.9508
Th	-10.9509
▁Others	-10.9509
▁cave	-10.9512
▁entertainment	-10.9512
mont	-10.9513
▁somewhere	-10.9514
ulation	-10.952
▁1992	-10.9523
▁NBA	-10.9524
▁Kid	-10.9527
7,000	-10.953
▁lowest	-10.9533
▁refugees	-10.9533
▁discrimination	-10.9536
▁Gre	-10.9538
▁pound	-10.9539
▁orange	-10.9542
▁Bolton	-10.9546
owner	-10.9551
▁sudden	-10.9552
▁slip	-10.9552
▁Fred	-10.9557
▁Louise	-10.9558
▁hosted	-10.9558
-2	-10.9564
▁Brendan	-10.9565
▁carefully	-10.9569
▁brings	-10.9569
▁strengthen	-10.9571
▁involves	-10.9573
▁Magistrates	-10.9574
▁Ukip	-10.9578
▁nightmare	-10.9578
CE	-10.9579
▁Djokovic	-10.9584
▁cop	-10.9584
hl	-10.9585
▁”	-10.9586
hum	-10.959
▁agenda	-10.9592
▁Victor	-10.9593
▁fri	-10.9594
▁Tea	-10.9594
▁diamond	-10.9596
▁Major	-10.9596
ological	-10.9597
▁Lt	-10.9598
▁winger	-10.9599
▁emerge	-10.96
▁amounts	-10.9601
struct	-10.9603
▁closure	-10.9608
▁gesture	-10.9608
▁balloon	-10.961
▁Wolf	-10.9611
▁keeper	-10.9611
▁approximately	-10.9612
▁Castle	-10.9624
wed	-10.9624
▁Boehner	-10.9627
▁suspension	-10.9627
▁bottles	-10.9628
▁vet	-10.9634
▁arch	-10.9637
▁Android	-10.9639
▁runway	-10.9639
▁Hai	-10.9641
48	-10.9641
▁Leon	-10.9642
▁homicide	-10.9645
▁harsh	-10.9645
▁citing	-10.9645
▁Sportsmail	-10.9646
ush	-10.9649
▁Ser	-10.965
▁questioning	-10.9651
▁impression	-10.9654
▁donated	-10.9656
post	-10.9657
▁Later	-10.9661
▁pronounced	-10.9664
▁hill	-10.9666
▁retail	-10.9668
▁interviews	-10.967
▁unconscious	-10.9671
▁Antonio	-10.9673
km	-10.968
▁Sto	-10.968
▁Play	-10.9681
pot	-10.9682
▁Commonwealth	-10.9682
▁settled	-10.9686
▁Wor	-10.9687
mas	-10.9688
▁Cleveland	-10.9689
▁32,	-10.9693
▁recommended	-10.9695
▁hacking	-10.97
care	-10.9705
▁singing	-10.9707
▁Tokyo	-10.9707
avi	-10.971
▁Baker	-10.9712
▁executed	-10.9712
▁Turner	-10.9715
▁spin	-10.9716
▁trips	-10.9717
▁pole	-10.9719
▁crowds	-10.972
23	-10.9721
▁CDC	-10.9727
▁steal	-10.973
▁Emily	-10.9733
▁perfectly	-10.9736
▁fierce	-10.9738
▁16,	-10.9744
▁Netherlands	-10.9744
▁shoppers	-10.9745
▁Burnley	-10.9751
▁3,000	-10.9752
erson	-10.9753
ero	-10.9754
▁excellent	-10.9757
37	-10.9763
▁romantic	-10.9763
▁ignored	-10.9765
band	-10.9766
▁intend	-10.9769
▁Vatican	-10.9769
▁rider	-10.9771
▁lifetime	-10.9774
lle	-10.9774
▁Shar	-10.9775
▁iReport	-10.9776
▁priest	-10.9776
mir	-10.9776
▁str	-10.978
▁crews	-10.9781
▁distress	-10.9783
▁Anti	-10.9786
▁courts	-10.9787
▁reign	-10.9789
Sa	-10.9789
▁Gor	-10.9793
▁Kansas	-10.9795
▁protecting	-10.9799
Ja	-10.9799
vie	-10.9805
shot	-10.9806
▁underwent	-10.9807
▁tissue	-10.9807
▁speaker	-10.9809
▁recognize	-10.9811
▁snake	-10.9813
1,000	-10.9814
▁highway	-10.9815
▁challenging	-10.982
▁overwhelming	-10.982
▁realize	-10.9824
▁13-	-10.9826
▁diabetes	-10.9826
▁manslaughter	-10.9826
▁dock	-10.9829
▁rely	-10.983
▁fundamental	-10.9838
▁tap	-10.9842
▁youngster	-10.9844
▁2013,	-10.9844
▁Tsarnaev	-10.9845
▁Mill	-10.9846
▁requested	-10.9846
▁Border	-10.9847
▁adventure	-10.9851
▁lane	-10.9851
▁complain	-10.9853
▁addict	-10.9854
▁encouraging	-10.9857
▁youngsters	-10.9859
▁Bradley	-10.986
Lo	-10.9863
▁wrapped	-10.9864
ele	-10.9869
▁Support	-10.9871
cast	-10.9872
MA	-10.9872
▁resignation	-10.9872
nning	-10.9877
far	-10.988
▁chase	-10.9882
▁cabin	-10.9882
break	-10.9883
onic	-10.9884
▁Mol	-10.9884
▁inform	-10.9887
▁3-	-10.9887
rey	-10.9889
hard	-10.9889
▁pilots	-10.9892
▁mothers	-10.9896
▁Farm	-10.9897
▁invest	-10.9899
▁Off	-10.9901
9,000	-10.9901
▁muscle	-10.9902
▁legacy	-10.9903
▁Sav	-10.9906
ncing	-10.9907
▁Affairs	-10.9908
▁carries	-10.9908
got	-10.9909
▁remembered	-10.9914
▁asylum	-10.9914
▁Mitt	-10.9916
▁Mak	-10.9916
▁Lucy	-10.992
▁demonstrators	-10.9921
▁indication	-10.9921
100	-10.9926
▁except	-10.9927
▁Adrian	-10.9927
west	-10.9936
standing	-10.9937
▁fu	-10.9938
▁Mass	-10.9941
poli	-10.9942
▁hits	-10.9944
▁lovely	-10.9944
▁photographed	-10.9945
▁excuse	-10.9946
Just	-10.9946
▁chant	-10.9947
▁overcome	-10.9948
lbs	-10.995
▁sacked	-10.9951
▁alter	-10.9952
▁liked	-10.9952
▁regulator	-10.9952
▁mosque	-10.9952
▁boot	-10.9954
▁boasts	-10.9954
▁races	-10.9956
▁explanation	-10.9959
▁bread	-10.996
▁offenders	-10.9961
dri	-10.9962
39	-10.9962
elle	-10.9963
fra	-10.9969
▁addiction	-10.9969
▁Walter	-10.9978
▁Lancashire	-10.9978
▁quoted	-10.9979
fit	-10.9981
▁Kyle	-10.999
▁belong	-10.9991
▁Boeing	-10.9991
▁Pol	-10.9991
match	-10.9992
38	-10.9997
box	-10.9997
▁Brand	-10.9999
berry	-11.0002
▁Albert	-11.0002
▁undergo	-11.0003
▁Gray	-11.0005
tes	-11.0006
PA	-11.001
▁interior	-11.0016
pir	-11.0018
▁tablet	-11.0022
gel	-11.0023
▁Bin	-11.0024
▁Beck	-11.0037
▁feelings	-11.0038
▁Sri	-11.0038
▁practices	-11.0039
▁rocks	-11.0039
▁Brady	-11.0041
▁baseball	-11.0043
▁forms	-11.0049
▁Media	-11.0053
▁Capital	-11.0055
▁liberal	-11.0055
IN	-11.0055
▁Var	-11.0056
▁gifts	-11.0057
cro	-11.0059
had	-11.0059
▁slim	-11.0061
▁grey	-11.0065
▁felony	-11.0065
▁judgment	-11.0068
▁Jacob	-11.0068
▁imposed	-11.007
▁letting	-11.0071
▁Brom	-11.0071
▁Kentucky	-11.0074
▁comedian	-11.0074
▁Sel	-11.0078
▁cartel	-11.0081
▁maintained	-11.0085
▁Wisconsin	-11.0087
▁concrete	-11.0087
▁Get	-11.0087
▁Dev	-11.0088
▁Gal	-11.0095
▁trafficking	-11.0102
▁attraction	-11.0104
ending	-11.0105
▁Festival	-11.0106
▁publication	-11.0107
▁upcoming	-11.0108
nel	-11.0108
ami	-11.0112
▁Mun	-11.0113
▁separated	-11.0115
▁Lev	-11.0117
▁Cristiano	-11.0119
▁provision	-11.012
▁pages	-11.0121
▁Spencer	-11.0126
▁accurate	-11.0126
▁Telegraph	-11.0126
▁insist	-11.0128
main	-11.0129
▁associate	-11.0131
▁Dog	-11.0131
▁Metropolitan	-11.0132
▁Liberia	-11.0133
▁Wy	-11.0133
▁Crow	-11.0141
▁investigations	-11.0145
▁Thousands	-11.0145
▁describing	-11.0145
▁massacre	-11.0152
▁Oliver	-11.0159
▁nationwide	-11.0159
▁ward	-11.0161
▁proof	-11.0162
▁Pistorius	-11.0165
▁chaos	-11.0166
▁Ly	-11.0167
42	-11.0168
lig	-11.0169
Pa	-11.017
▁Catherine	-11.0171
▁booked	-11.0176
▁dresses	-11.0177
▁Hunter	-11.0177
▁seventh	-11.0181
▁parole	-11.0184
piece	-11.0189
▁Barclays	-11.0191
▁Moyes	-11.0191
▁aftermath	-11.0191
▁Lincoln	-11.0197
▁bleeding	-11.0198
▁feeding	-11.0198
▁Christ	-11.0199
▁brush	-11.0204
▁kidnapped	-11.0204
▁Lambert	-11.0204
▁legally	-11.0204
▁Eli	-11.0207
ima	-11.0208
kick	-11.021
▁musical	-11.0215
▁musician	-11.0216
▁frozen	-11.0217
ister	-11.022
▁bullying	-11.022
▁keeps	-11.0222
▁View	-11.0224
▁courtroom	-11.0224
▁GM	-11.0226
▁haul	-11.0227
▁mud	-11.0228
▁journal	-11.0234
east	-11.0236
▁Ronald	-11.0237
sel	-11.0239
▁lab	-11.024
▁load	-11.024
▁liquid	-11.0243
AS	-11.0243
▁600	-11.0243
eller	-11.0244
▁trading	-11.0249
▁Follow	-11.0256
▁secured	-11.0257
▁Senator	-11.026
▁participants	-11.0262
▁diagnosis	-11.0263
▁disrupt	-11.0263
▁Angela	-11.0267
▁expression	-11.0267
▁den	-11.0269
▁soccer	-11.0269
cade	-11.0271
shire	-11.0271
▁glad	-11.0272
▁dates	-11.0276
oe	-11.0281
ient	-11.0284
▁Awards	-11.0286
▁invasion	-11.0289
▁furious	-11.029
▁chart	-11.029
▁stressed	-11.0291
▁visa	-11.0296
▁Middleton	-11.0297
rrell	-11.0297
▁Bru	-11.0299
Je	-11.0305
▁punch	-11.0307
CC	-11.031
▁landmark	-11.031
▁33,	-11.0312
pet	-11.0313
▁tens	-11.0314
▁Cairo	-11.0316
▁1989	-11.0316
▁Nathan	-11.0316
▁Denver	-11.0316
arch	-11.0323
▁bears	-11.0331
iel	-11.0333
▁recognise	-11.0334
▁Bishop	-11.0335
▁ankle	-11.0336
▁Brighton	-11.0337
▁liver	-11.0339
▁consult	-11.034
▁confessed	-11.0341
▁ordinary	-11.0342
▁mistakes	-11.0346
cie	-11.0348
▁hopeful	-11.0348
▁statue	-11.0348
▁hotels	-11.0351
▁crown	-11.0351
▁pledged	-11.0354
▁$	-11.0354
▁mail	-11.0354
▁QC	-11.0355
▁wider	-11.0358
▁neglect	-11.0361
stock	-11.0366
▁borrow	-11.0368
▁globe	-11.0368
▁machines	-11.0373
▁painted	-11.0374
▁rounds	-11.038
▁anymore	-11.038
▁Anfield	-11.038
▁Greater	-11.038
▁Tories	-11.0382
▁trains	-11.0382
▁Mur	-11.0384
▁Sunni	-11.0389
Jo	-11.039
▁savings	-11.0392
▁resulting	-11.0394
▁Hannah	-11.0395
arian	-11.0396
▁threaten	-11.0399
urge	-11.0401
▁Assad	-11.0405
▁urgent	-11.0409
▁selected	-11.0413
▁Virgin	-11.0416
ici	-11.0417
▁substantial	-11.0417
itive	-11.0417
▁Sad	-11.0418
▁Fernando	-11.0421
▁Queensland	-11.0423
nal	-11.0424
26	-11.0426
▁Somerset	-11.0428
▁Control	-11.0428
▁soul	-11.0431
Don	-11.0432
▁Ted	-11.0432
ros	-11.0433
ware	-11.0433
28	-11.0433
▁unexpected	-11.0435
▁offices	-11.0441
▁9/11	-11.0441
▁Company	-11.0441
▁elements	-11.0442
▁click	-11.0444
AC	-11.0446
▁weighed	-11.0446
▁forensic	-11.0449
▁egg	-11.0449
▁insult	-11.0449
▁Silva	-11.045
▁Lar	-11.0451
▁Haiti	-11.0454
▁Ter	-11.0454
▁download	-11.0455
▁lit	-11.046
bus	-11.0461
▁discipline	-11.0461
▁engage	-11.0463
▁corporate	-11.0468
▁cyber	-11.0468
▁proposals	-11.0468
▁freed	-11.047
▁convert	-11.0471
▁Ever	-11.0472
▁Cri	-11.0473
▁passes	-11.0475
▁beloved	-11.0478
▁sing	-11.0481
▁Inspector	-11.0482
▁Kha	-11.0485
▁mad	-11.0486
▁export	-11.0487
▁obesity	-11.0488
▁yacht	-11.0488
▁isolated	-11.0488
▁panic	-11.0489
▁Tar	-11.0491
▁spark	-11.0493
spiring	-11.0497
▁revealing	-11.0497
▁Mont	-11.0501
una	-11.0501
▁graphic	-11.0502
EA	-11.0503
▁halt	-11.0504
▁technique	-11.0505
▁bloody	-11.0506
▁Carlos	-11.0508
ND	-11.0514
▁$10	-11.0517
▁rig	-11.0518
▁aims	-11.0518
▁Sol	-11.052
▁Brooks	-11.0521
▁Caribbean	-11.0522
▁destruction	-11.0529
rise	-11.0529
▁facts	-11.0529
ST	-11.0529
real	-11.0531
ura	-11.0534
▁designs	-11.0535
▁withdraw	-11.0535
▁Vladimir	-11.0535
▁shed	-11.0537
▁Emirates	-11.0542
▁Singapore	-11.0542
▁injection	-11.0542
ential	-11.0543
▁hook	-11.0544
▁Morris	-11.0549
▁regions	-11.0556
Why	-11.0557
▁nail	-11.056
36	-11.0561
▁1991	-11.0562
▁reserve	-11.0571
var	-11.0572
ying	-11.0575
▁Av	-11.0575
▁Next	-11.0576
▁Cher	-11.0584
▁Philippines	-11.0588
▁gunshot	-11.0591
▁Kirk	-11.0596
▁Formula	-11.0596
▁camps	-11.0596
▁phase	-11.0597
▁handful	-11.0597
27	-11.0597
▁classroom	-11.0598
▁prayers	-11.0598
▁limb	-11.0602
▁communicate	-11.0603
▁Take	-11.0609
▁literally	-11.0617
▁meanwhile	-11.0617
▁dragged	-11.0617
sson	-11.0619
▁reduction	-11.0619
▁Animal	-11.0623
▁adjust	-11.0631
▁slammed	-11.0631
kov	-11.0633
▁1950	-11.0634
▁Any	-11.0634
▁urban	-11.0637
▁facial	-11.0637
▁succeed	-11.064
ility	-11.064
▁underground	-11.0641
▁Blake	-11.0643
▁competing	-11.0644
▁bug	-11.0645
▁coin	-11.0645
▁performances	-11.0645
▁enable	-11.0647
▁resign	-11.0649
29	-11.0654
▁uncovered	-11.0659
▁73	-11.0661
▁permit	-11.0663
▁towns	-11.0665
▁Palin	-11.0668
▁holidays	-11.0669
now	-11.0669
57	-11.0669
▁RAF	-11.0672
£	-11.0674
▁midfield	-11.0674
▁reads	-11.0677
▁Opinion	-11.068
iness	-11.0682
▁fixture	-11.0685
▁delays	-11.0686
▁midnight	-11.0686
▁11-	-11.0689
ption	-11.069
▁ballot	-11.0691
▁import	-11.0691
▁Kurdish	-11.0692
Mi	-11.0694
▁MI	-11.0698
▁finishing	-11.0698
▁Emergency	-11.0699
▁oxygen	-11.0699
▁Samantha	-11.0705
itu	-11.0706
ela	-11.0707
▁diplomat	-11.0708
▁tool	-11.0709
▁Yard	-11.0709
ato	-11.0715
▁controls	-11.0716
▁71	-11.0717
▁sensor	-11.0726
ffe	-11.0728
▁examination	-11.0728
▁Source	-11.0733
▁blanket	-11.0735
▁Music	-11.0735
ounce	-11.0736
▁ceiling	-11.074
▁toys	-11.0741
▁Field	-11.0747
▁contractor	-11.0748
▁Nasa	-11.0749
▁prince	-11.0749
▁pattern	-11.0751
▁pensioner	-11.0751
▁increases	-11.0751
▁Eight	-11.0752
oh	-11.0753
La	-11.0753
▁cats	-11.0761
government	-11.0766
▁Ferrari	-11.0767
▁nightclub	-11.0767
▁Monaco	-11.0767
▁tornado	-11.0767
▁lobby	-11.0768
▁toxic	-11.0769
vor	-11.0771
▁producing	-11.0774
▁Hitler	-11.0775
▁profits	-11.0775
▁bounce	-11.0775
bby	-11.0778
ome	-11.0778
▁ambition	-11.0781
▁institutions	-11.0783
▁employed	-11.0784
▁Farage	-11.0785
▁Nearly	-11.0788
▁28-	-11.079
▁teach	-11.0791
makers	-11.0794
▁improving	-11.0795
▁accidentally	-11.0796
▁Hollande	-11.0797
▁triggered	-11.0798
▁Hills	-11.0802
rov	-11.0803
hole	-11.0803
▁siblings	-11.0804
▁pure	-11.0807
chan	-11.0808
▁Sergio	-11.0809
▁organised	-11.0811
breaking	-11.0812
power	-11.0814
woman	-11.0816
▁pray	-11.082
▁appeals	-11.0821
▁McIlroy	-11.0823
you	-11.0823
▁Tragic	-11.0823
▁icon	-11.0823
▁airports	-11.0829
▁perspective	-11.083
▁chamber	-11.083
ida	-11.0831
▁Vietnam	-11.0836
▁recognition	-11.0844
▁chronic	-11.0844
rid	-11.0844
▁deck	-11.0856
▁Au	-11.0857
▁aggravated	-11.0857
▁Lionel	-11.0857
▁outdoor	-11.0861
33	-11.0866
▁Barr	-11.0867
▁tips	-11.0867
AT	-11.0871
▁urging	-11.0871
▁refer	-11.0873
▁Nancy	-11.0875
pat	-11.0875
▁SC	-11.0877
▁Tur	-11.0877
▁Lock	-11.0877
▁zero	-11.0878
▁entrepreneur	-11.0883
▁defendants	-11.0886
▁wrap	-11.0887
▁boxes	-11.089
▁jihadist	-11.0891
ovic	-11.0892
rge	-11.0893
▁dancer	-11.0897
Even	-11.0897
▁smiling	-11.0899
▁filing	-11.0899
▁loyal	-11.0905
▁apologised	-11.0906
▁Embassy	-11.0906
▁UEFA	-11.0906
▁Cle	-11.091
▁flee	-11.091
▁34,	-11.0912
▁promises	-11.0912
▁launching	-11.0913
mouth	-11.0913
▁Campaign	-11.0913
▁dive	-11.0914
32	-11.0915
▁currency	-11.092
▁praise	-11.0921
▁constitutional	-11.0923
▁decor	-11.0928
▁Stock	-11.0928
▁ver	-11.0934
▁arguing	-11.0934
▁rough	-11.0936
Every	-11.0937
▁NSA	-11.0938
▁methods	-11.0939
child	-11.0943
▁drag	-11.0948
▁Liberal	-11.0948
▁deadline	-11.095
▁carpet	-11.0953
▁weekly	-11.0954
▁proportion	-11.0955
▁Gh	-11.0959
▁Thai	-11.0962
▁Investigation	-11.0963
▁rolled	-11.0963
▁coup	-11.0965
erry	-11.0965
▁convictions	-11.0966
▁Gil	-11.0966
▁detect	-11.097
▁drill	-11.0972
▁mall	-11.0975
▁careful	-11.0975
▁suffers	-11.0976
▁Vincent	-11.0977
rain	-11.0978
▁starring	-11.0979
▁Bus	-11.098
▁backing	-11.0982
▁analysts	-11.0983
▁Cosby	-11.0984
▁Kill	-11.0985
▁difficulties	-11.0987
▁Todd	-11.0989
▁misconduct	-11.0991
ime	-11.0991
person	-11.0993
own	-11.0994
▁Sophie	-11.0998
▁prisoner	-11.0998
▁Holder	-11.0999
▁edition	-11.1001
rag	-11.1003
▁Nevada	-11.1005
▁Cape	-11.1006
bridge	-11.1008
itis	-11.1008
▁explosive	-11.1008
▁remind	-11.1009
▁frustration	-11.1012
▁sentences	-11.1012
iest	-11.1012
▁cancelled	-11.1013
▁Shah	-11.1019
▁evacuated	-11.102
▁lend	-11.1022
▁breaks	-11.1024
46	-11.1028
▁800	-11.1029
igan	-11.1029
▁Lanka	-11.1032
▁testify	-11.1033
▁Gareth	-11.1034
▁Buck	-11.1038
▁apologise	-11.1041
▁dropping	-11.1044
▁confronted	-11.1044
▁defect	-11.1044
US	-11.1046
▁stopping	-11.1052
AL	-11.1053
▁puts	-11.1053
▁76	-11.1057
owned	-11.1058
fish	-11.1059
▁Lopez	-11.1062
▁negotiate	-11.1062
▁toll	-11.1064
tress	-11.1064
▁Pal	-11.1065
dding	-11.1066
▁finds	-11.1074
▁74	-11.1076
Oh	-11.108
▁tale	-11.1081
▁Grace	-11.1084
▁recession	-11.1084
aki	-11.1089
▁affects	-11.1089
treat	-11.1093
▁Phoenix	-11.1097
▁scenario	-11.1097
▁Marie	-11.1099
▁ranks	-11.1102
▁wishes	-11.1103
▁Orleans	-11.1104
making	-11.1105
Ne	-11.111
▁Jail	-11.1111
▁ultimate	-11.1112
▁whilst	-11.1119
▁$9	-11.1119
▁fever	-11.112
▁dreams	-11.1125
▁athlete	-11.1132
▁oversee	-11.1133
gie	-11.1133
ius	-11.1134
▁hint	-11.1138
▁Juventus	-11.114
▁Ker	-11.1147
▁genuine	-11.1148
▁ages	-11.115
▁tactics	-11.1153
▁foods	-11.1154
▁kilometers	-11.1155
nor	-11.116
▁Battle	-11.1162
▁refusing	-11.1162
▁pretend	-11.1162
▁shi	-11.1164
▁cooking	-11.1164
▁Fra	-11.1164
▁wet	-11.1165
▁tar	-11.1166
▁Dick	-11.1167
▁Are	-11.1167
▁acknowledge	-11.117
pit	-11.1174
▁dealt	-11.1174
tell	-11.1179
▁Senior	-11.1183
▁labour	-11.1184
▁wanting	-11.1185
mus	-11.1185
▁asks	-11.1186
▁boats	-11.1189
▁seemingly	-11.1191
▁Beth	-11.1191
▁wooden	-11.1197
▁exploded	-11.1197
▁prescription	-11.1198
▁promising	-11.1198
▁ranking	-11.1198
▁cinema	-11.1198
▁skill	-11.1198
▁Heathrow	-11.1198
tech	-11.1203
▁everyday	-11.1203
▁challenged	-11.1205
▁cliff	-11.1206
▁ruin	-11.1206
▁random	-11.1206
▁websites	-11.1209
▁outstanding	-11.1216
lift	-11.1218
third	-11.1219
▁Guinea	-11.1219
▁conversations	-11.1222
▁duo	-11.1223
▁29-	-11.1226
▁corporation	-11.1226
▁Mohamed	-11.1226
turn	-11.1227
Yes	-11.1227
▁Gates	-11.1228
▁pun	-11.123
▁Online	-11.1231
▁Andrea	-11.1231
▁Motor	-11.1232
▁movements	-11.1233
▁watches	-11.1233
▁motive	-11.1234
▁trans	-11.1234
▁Pass	-11.1242
▁courage	-11.1242
▁expenses	-11.1243
▁Jill	-11.1244
oid	-11.1246
▁helmet	-11.1249
three	-11.1256
▁Caroline	-11.1257
▁Brother	-11.1258
▁boots	-11.1259
▁consistent	-11.1262
▁dictator	-11.1263
agh	-11.1265
▁longest	-11.1266
▁exhibit	-11.1266
▁Guardian	-11.1267
▁steel	-11.127
Not	-11.1271
▁arrives	-11.1271
▁Larry	-11.1273
ude	-11.1273
▁odd	-11.1273
iya	-11.1275
▁stupid	-11.1277
nick	-11.1278
▁samples	-11.1279
anne	-11.1282
▁listening	-11.1282
borough	-11.1283
▁Persie	-11.1285
▁Protection	-11.1285
▁Cancer	-11.1286
▁severely	-11.1286
▁extremists	-11.129
▁terrified	-11.1292
▁representatives	-11.1295
wen	-11.1297
▁Lebanon	-11.1299
▁Norway	-11.1301
▁installed	-11.1301
assi	-11.1302
▁returns	-11.1302
▁Islands	-11.1309
path	-11.1315
▁Lou	-11.1315
rating	-11.1316
▁Mir	-11.1321
▁Valencia	-11.1321
▁indictment	-11.1321
▁gall	-11.1323
▁Cou	-11.1325
▁swept	-11.1328
▁scam	-11.1328
▁Freedom	-11.1329
bro	-11.133
▁groom	-11.133
ille	-11.1331
▁joked	-11.1334
▁mob	-11.1335
▁smooth	-11.1335
kg	-11.1337
lton	-11.1337
▁damages	-11.134
Of	-11.1341
▁calories	-11.1343
▁consent	-11.1343
▁pledge	-11.1344
▁exam	-11.1345
▁Dec	-11.1348
▁awful	-11.1353
trial	-11.1356
▁marathon	-11.1357
▁mortgage	-11.1357
▁Karen	-11.1359
▁Bath	-11.1363
craft	-11.1365
blo	-11.1365
▁Members	-11.1365
▁Bureau	-11.1365
▁knock	-11.1366
▁rage	-11.137
▁lean	-11.1372
▁astronaut	-11.1372
▁punched	-11.1377
▁Prosecutor	-11.1378
▁Foster	-11.1382
▁prevented	-11.1386
▁demonstrations	-11.1386
▁scratch	-11.1387
▁Morrison	-11.1388
host	-11.1388
▁Pier	-11.1391
▁pi	-11.1391
▁protective	-11.1391
▁brands	-11.1392
▁troubled	-11.1394
▁Julian	-11.1395
aid	-11.1396
▁Gall	-11.1398
▁blocks	-11.1401
▁seizure	-11.1401
▁Bol	-11.1402
▁reserved	-11.1402
▁burns	-11.1403
dia	-11.1404
▁wreck	-11.1407
▁penalties	-11.1409
▁radiation	-11.1409
▁Nicole	-11.1411
cation	-11.1415
▁Political	-11.1416
▁anxiety	-11.1416
▁storage	-11.1416
▁cafe	-11.1418
nam	-11.1419
▁dramatically	-11.1419
pid	-11.142
▁introduce	-11.1425
▁briefly	-11.1429
▁Sim	-11.143
atic	-11.143
▁wi	-11.1436
▁Stevens	-11.1436
▁jumping	-11.1437
▁taxpayer	-11.1439
▁watchdog	-11.1439
▁bust	-11.1439
▁jaw	-11.144
▁clinical	-11.144
▁fluid	-11.1441
▁rapidly	-11.1442
▁Saint	-11.1447
▁Close	-11.145
▁practical	-11.1453
▁protein	-11.1453
▁250	-11.1453
▁duties	-11.1461
▁explosives	-11.1464
▁77	-11.1466
uge	-11.1469
▁participate	-11.1469
▁Der	-11.147
▁broadcaster	-11.1471
▁Baby	-11.1471
▁openly	-11.1475
▁Speaker	-11.1483
▁frustrated	-11.1483
▁differences	-11.1487
▁15,	-11.1487
▁Cruz	-11.1489
▁Global	-11.149
rent	-11.1494
▁hike	-11.1495
clusive	-11.1496
▁Arsene	-11.1498
▁topic	-11.1498
▁laptop	-11.1498
▁complicated	-11.1498
▁inspection	-11.1504
ators	-11.1505
▁presidency	-11.1505
▁menu	-11.1507
bl	-11.1507
▁lethal	-11.1508
Any	-11.1508
▁tourism	-11.151
▁Sab	-11.151
▁fabric	-11.1512
▁petrol	-11.1513
▁smiles	-11.1517
core	-11.1519
▁Energy	-11.152
However	-11.1521
▁embrace	-11.1521
▁3-0	-11.1522
▁Kh	-11.1523
▁Len	-11.1525
▁donor	-11.1527
▁Too	-11.1528
34	-11.1529
▁boo	-11.1533
▁legitimate	-11.1535
▁racism	-11.1535
▁patch	-11.1537
NA	-11.1537
▁Jerry	-11.1538
card	-11.1542
▁Sudan	-11.1543
▁Prix	-11.1545
▁operated	-11.1545
▁murdering	-11.1545
▁poison	-11.1548
shing	-11.1549
gui	-11.1549
▁extension	-11.155
▁Jews	-11.155
▁colon	-11.1554
▁2006,	-11.1558
▁mph	-11.1559
▁erupted	-11.1559
▁tiger	-11.1559
cop	-11.1559
▁Got	-11.1563
▁discussions	-11.1566
LE	-11.1567
▁bow	-11.1568
▁intensive	-11.1572
▁Perez	-11.1574
▁laughing	-11.1576
▁beside	-11.1576
▁ends	-11.1577
▁Drug	-11.1577
▁detective	-11.1578
▁generations	-11.158
▁Girl	-11.158
▁downtown	-11.158
hon	-11.1581
▁gown	-11.1583
▁Dortmund	-11.1587
uous	-11.1589
ista	-11.1589
▁Brisbane	-11.1595
▁Fashion	-11.1595
▁prostitute	-11.1595
▁desperately	-11.16
ground	-11.1601
▁qualifying	-11.1603
▁farmers	-11.1606
▁Latin	-11.1609
▁Trade	-11.1612
▁hopefully	-11.1613
▁newborn	-11.1615
▁Murdoch	-11.1617
▁Redknapp	-11.1617
zen	-11.1619
▁techniques	-11.162
▁unacceptable	-11.162
▁cure	-11.1621
mother	-11.1624
▁burglary	-11.1627
▁sessions	-11.1632
▁Summer	-11.1634
kill	-11.1634
▁colours	-11.1635
▁Game	-11.1638
▁Nottingham	-11.1639
▁promoting	-11.164
▁staggering	-11.164
▁billionaire	-11.164
▁container	-11.1643
▁cheaper	-11.1643
▁Carr	-11.1646
Sha	-11.1648
▁Way	-11.1651
▁violation	-11.1653
▁Lang	-11.1654
logical	-11.1657
▁Argentine	-11.1662
▁junior	-11.1662
▁necessarily	-11.1662
▁enhance	-11.1662
▁admission	-11.1663
▁treatments	-11.167
▁answered	-11.1678
rang	-11.1678
▁cal	-11.1679
▁spotlight	-11.1679
▁underwater	-11.1681
▁commissioner	-11.1681
kar	-11.1681
▁applications	-11.1681
▁resolve	-11.1682
▁Sex	-11.1683
▁disappointing	-11.1685
▁caring	-11.1687
nant	-11.1691
four	-11.1693
▁meters	-11.1695
guard	-11.1695
▁medals	-11.1696
ident	-11.1696
lough	-11.1696
▁Obamacare	-11.1697
▁damaging	-11.17
▁critic	-11.17
▁falls	-11.1705
▁cyclist	-11.1708
▁wrist	-11.1708
▁Tam	-11.1709
▁Jar	-11.171
igh	-11.1712
rat	-11.1715
▁airlines	-11.1716
▁stall	-11.1721
▁asleep	-11.1723
▁scientist	-11.1723
▁relation	-11.1731
▁unprecedented	-11.1732
▁roles	-11.1738
▁eighth	-11.1738
▁drain	-11.1739
▁gotten	-11.174
leigh	-11.1741
▁Cuban	-11.1745
elect	-11.1746
▁consist	-11.1747
▁Glass	-11.1748
bow	-11.1749
▁actors	-11.1751
▁examined	-11.1751
▁Said	-11.1752
vit	-11.1753
▁admire	-11.1754
▁freeze	-11.1756
▁marine	-11.1757
▁Spa	-11.1757
▁Mis	-11.1759
▁dumped	-11.1759
isa	-11.176
▁Belgian	-11.1761
▁Harvard	-11.1761
▁guidance	-11.1761
boat	-11.1766
▁disagree	-11.1769
▁Front	-11.1769
▁spy	-11.1771
FC	-11.1773
▁unrest	-11.1773
▁dominated	-11.1775
▁Abdul	-11.1776
▁Such	-11.1782
▁Poll	-11.1782
▁Critics	-11.1784
_	-11.1784
scale	-11.1784
nc	-11.1788
▁Zo	-11.179
▁nominee	-11.1792
▁limits	-11.1794
▁celebrations	-11.1795
▁leather	-11.1799
▁queen	-11.18
▁Stanley	-11.1802
▁climbing	-11.1803
▁examine	-11.1805
▁proven	-11.1806
▁horrible	-11.1807
▁waist	-11.1807
▁formally	-11.1809
▁Perhaps	-11.1809
▁locals	-11.1811
ua	-11.1812
▁category	-11.1814
▁restore	-11.1814
▁awaiting	-11.1815
▁Indeed	-11.1815
▁recognised	-11.1816
▁frequent	-11.1816
▁Ven	-11.1818
hel	-11.1822
▁syndrome	-11.1822
▁Bernard	-11.1823
▁Independent	-11.1824
▁Billy	-11.1825
▁Bennett	-11.183
▁paramedics	-11.1831
inger	-11.1834
▁pat	-11.1835
▁shouting	-11.1837
▁Entertainment	-11.1837
▁pipe	-11.1838
▁Latino	-11.184
▁lengthy	-11.184
▁fixed	-11.1842
▁famously	-11.1843
9.	-11.1844
▁thrill	-11.1845
▁Pardew	-11.1845
▁Residents	-11.1845
good	-11.1848
ula	-11.1848
▁Peace	-11.1854
▁prompting	-11.1861
▁Liga	-11.1862
▁£12	-11.1864
uf	-11.1869
▁pets	-11.1869
▁Ran	-11.187
▁Roberto	-11.187
ature	-11.1872
▁Samuel	-11.1876
▁Bl	-11.1877
▁railway	-11.1878
▁contribute	-11.1878
▁organized	-11.188
▁Cy	-11.1881
▁goods	-11.1883
▁14,	-11.1889
▁Brussels	-11.1891
▁35,	-11.1895
▁institution	-11.1896
▁6,	-11.1899
▁Scene	-11.19
▁predator	-11.19
▁11,	-11.19
▁Inside	-11.1901
▁FOR	-11.1902
▁breed	-11.1905
▁Rad	-11.1909
▁talented	-11.1909
▁attractive	-11.191
▁percentage	-11.1916
▁employ	-11.1917
▁somehow	-11.192
▁Arthur	-11.1923
vision	-11.1926
▁Rover	-11.1926
▁description	-11.193
▁cartoon	-11.193
▁Final	-11.1931
▁ET	-11.1931
▁equally	-11.1936
▁Death	-11.1936
▁involve	-11.1937
held	-11.1943
iva	-11.1944
▁conceal	-11.1946
▁rebuild	-11.195
▁choices	-11.195
▁trio	-11.1951
¿	-11.1953
▁Galaxy	-11.1953
▁Derby	-11.1954
▁surprising	-11.1955
▁slide	-11.1955
07	-11.1959
▁tablets	-11.1961
[	-11.1962
▁fleet	-11.1963
▁losses	-11.1963
dog	-11.1963
▁Nadal	-11.1963
99	-11.1967
▁fastest	-11.1968
▁NYPD	-11.1969
▁ranked	-11.1976
boy	-11.1977
▁snapped	-11.1978
▁Robertson	-11.1978
50,000	-11.1979
▁Peterson	-11.1981
▁divorced	-11.1982
▁excess	-11.1982
def	-11.1984
▁Forces	-11.1985
▁Son	-11.1989
▁plain	-11.1991
▁Lancaster	-11.1992
▁visual	-11.1992
enberg	-11.1995
▁monkey	-11.2
▁Design	-11.2003
▁Prison	-11.2004
▁privilege	-11.2008
strong	-11.2009
▁alerted	-11.2011
▁earning	-11.2011
▁hardly	-11.2012
▁column	-11.2013
▁Abbey	-11.2016
ought	-11.2019
▁III	-11.2023
▁NSW	-11.2024
▁suing	-11.2024
grade	-11.2024
▁stripped	-11.2025
▁Run	-11.2027
▁vanished	-11.2031
▁Joshua	-11.2032
▁estimate	-11.2034
▁pad	-11.2036
▁avoided	-11.2037
▁Ana	-11.2038
▁Columbia	-11.2039
▁Fall	-11.2044
▁buyers	-11.2047
▁Hurricane	-11.2047
▁doll	-11.2047
▁20,000	-11.2052
▁Aguero	-11.2055
▁Thames	-11.2055
▁Jet	-11.2056
▁acres	-11.2056
▁Zi	-11.2057
eau	-11.2058
▁holes	-11.2058
▁uk	-11.206
▁surf	-11.2061
▁Roll	-11.2061
▁Photo	-11.2063
▁Gabriel	-11.2063
▁gross	-11.2063
Man	-11.2063
▁defeated	-11.2063
▁Para	-11.2064
▁evil	-11.2064
▁engineering	-11.2064
abi	-11.2065
▁78	-11.2066
▁divided	-11.2066
▁managers	-11.2068
▁Chavez	-11.2071
▁freezing	-11.2071
▁motivated	-11.2075
elli	-11.2078
posed	-11.2078
▁Ferdinand	-11.2079
▁smuggle	-11.2079
▁subjected	-11.208
▁rip	-11.2082
tail	-11.2084
▁rating	-11.2084
▁Rafael	-11.2086
▁$100	-11.2088
▁hostages	-11.2089
▁Bobby	-11.2091
lash	-11.2093
▁accusing	-11.2094
▁gallery	-11.2095
▁Cold	-11.2096
▁Bun	-11.2098
plain	-11.2099
▁Arm	-11.21
lier	-11.2103
tree	-11.2109
▁VA	-11.211
▁Pellegrini	-11.211
too	-11.2116
operative	-11.2116
▁Mai	-11.2118
▁phrase	-11.2118
▁40-	-11.2118
▁mentally	-11.2118
▁retreat	-11.2122
▁crackdown	-11.2127
dress	-11.213
Today	-11.2131
31	-11.2131
▁3-1	-11.2132
▁psychological	-11.2134
▁slipped	-11.2135
▁venture	-11.2135
▁submitted	-11.2135
▁Bashar	-11.2135
ault	-11.214
▁eligible	-11.2142
09	-11.2148
▁flooded	-11.2148
▁displayed	-11.215
rus	-11.215
▁Report	-11.2152
▁5,	-11.2155
▁bare	-11.2156
▁funded	-11.2156
▁supplier	-11.2158
▁whi	-11.2158
Pro	-11.2158
weight	-11.2159
▁tribe	-11.2159
▁wages	-11.2163
▁expectations	-11.2163
▁eager	-11.2165
▁Nigerian	-11.2168
▁responding	-11.2169
▁Community	-11.2173
▁Dennis	-11.2173
▁Rou	-11.2174
▁discount	-11.2175
▁closest	-11.2179
▁item	-11.218
fact	-11.218
▁regain	-11.2181
ggy	-11.2186
44	-11.2186
▁Wo	-11.2187
▁Boris	-11.2188
▁hailed	-11.2189
iser	-11.2191
▁duck	-11.2195
cell	-11.2195
▁dementia	-11.2197
▁forgotten	-11.2197
▁aunt	-11.2203
rel	-11.2204
▁melt	-11.2204
▁Cara	-11.2205
▁SUV	-11.2205
▁uploaded	-11.2205
▁recognized	-11.2208
▁nursing	-11.2213
,400	-11.2214
▁reasonable	-11.222
▁pizza	-11.2221
▁reducing	-11.2221
▁org	-11.2221
▁sacrifice	-11.2229
▁friendship	-11.2229
▁Brotherhood	-11.2229
▁dose	-11.223
▁Def	-11.2231
▁relat	-11.2233
▁Award	-11.2233
▁Polish	-11.2239
▁Train	-11.2239
umbling	-11.224
▁Potter	-11.2241
▁Maine	-11.2241
▁autumn	-11.2245
▁charging	-11.2245
▁democratic	-11.2245
▁cease	-11.2246
▁islands	-11.2247
▁glasses	-11.2248
▁covers	-11.2257
▁artificial	-11.2261
▁deposit	-11.2262
▁Bear	-11.2267
▁relevant	-11.2269
▁fingers	-11.2272
▁condemn	-11.2276
▁Corp	-11.2276
▁deliberately	-11.2277
▁qualify	-11.2285
▁Film	-11.2285
▁autopsy	-11.2285
uz	-11.2286
▁abandon	-11.2287
▁brick	-11.2288
▁undergoing	-11.229
itor	-11.2292
phone	-11.2293
▁franchise	-11.2293
▁Vol	-11.2294
▁Toure	-11.2297
ope	-11.2297
▁naturally	-11.2305
▁intervene	-11.231
▁Gro	-11.231
▁moderate	-11.2311
▁shooter	-11.2314
DA	-11.2315
▁Karl	-11.2315
inter	-11.2321
meter	-11.2325
▁Benghazi	-11.2326
▁Unit	-11.2327
▁relaxed	-11.2328
▁Information	-11.2334
▁depth	-11.2334
▁Pop	-11.2335
▁qualified	-11.2336
▁subsequently	-11.2338
▁indecent	-11.2342
Po	-11.2342
▁Pla	-11.2343
▁Kin	-11.2344
▁Vick	-11.2346
▁silent	-11.235
▁Ros	-11.2354
▁Point	-11.2354
ico	-11.2358
bot	-11.2362
▁regardless	-11.2363
▁implement	-11.2365
▁supporter	-11.2366
▁Mubarak	-11.2366
▁Nicholas	-11.2366
▁consumption	-11.2366
IT	-11.237
▁converted	-11.2371
▁Blackpool	-11.2374
▁consecutive	-11.2374
▁terrifying	-11.2374
▁unidentified	-11.2374
▁virtual	-11.2377
▁Armed	-11.2377
08	-11.2379
▁donate	-11.2384
▁extremist	-11.2385
▁yard	-11.2389
Car	-11.239
▁Mayweather	-11.239
▁Stamford	-11.239
▁Ghana	-11.2391
▁Mata	-11.2391
▁stability	-11.2392
▁highlights	-11.24
ata	-11.24
▁Country	-11.24
▁mountains	-11.2402
▁stabbing	-11.2407
▁Norman	-11.2407
▁www	-11.2411
▁Appeal	-11.2415
▁Toronto	-11.2423
▁emerging	-11.2423
▁surrender	-11.2423
▁volume	-11.2423
▁Snow	-11.2426
ctic	-11.2427
▁infamous	-11.2429
▁Tehran	-11.2431
▁insect	-11.2434
quin	-11.2439
▁raw	-11.2441
▁murders	-11.2443
▁Have	-11.2445
▁highlighted	-11.2446
▁cycling	-11.2447
▁Cop	-11.2449
▁Alexis	-11.2449
▁excessive	-11.2451
▁alien	-11.2452
▁Fabregas	-11.2455
▁1986	-11.2455
▁Merkel	-11.2456
▁automatically	-11.2456
▁networking	-11.2457
▁golden	-11.2457
▁Almost	-11.2459
▁pill	-11.2459
Su	-11.246
mid	-11.2463
▁storms	-11.2465
graph	-11.2466
▁statistics	-11.2466
▁cage	-11.2467
▁stance	-11.2469
link	-11.247
▁Rica	-11.2471
▁biological	-11.2472
print	-11.2473
▁existence	-11.2473
▁Grove	-11.2474
▁Pin	-11.2477
▁virtually	-11.2477
▁aired	-11.248
▁anchor	-11.2481
▁Cast	-11.2481
▁embarrassing	-11.2484
cin	-11.2484
▁Eye	-11.2485
▁Editor	-11.2489
▁Palmer	-11.249
▁£30	-11.2497
respect	-11.2499
ement	-11.2499
▁Bou	-11.2502
▁Military	-11.2505
any	-11.2506
▁violated	-11.251
▁vegetables	-11.251
▁regarded	-11.2512
than	-11.2513
market	-11.2513
▁handled	-11.2515
▁basically	-11.2516
▁Sil	-11.2517
▁flaw	-11.2518
rock	-11.2519
▁architect	-11.252
▁2005,	-11.2523
about	-11.2524
▁god	-11.2527
stead	-11.2528
▁context	-11.2529
▁ripped	-11.253
eth	-11.2531
▁36,	-11.2531
lah	-11.2531
”.	-11.2533
▁Glen	-11.2534
▁dining	-11.2534
▁attacker	-11.2534
▁heels	-11.2534
that	-11.2537
▁Ob	-11.2542
▁nowhere	-11.2543
▁Lampard	-11.2546
ordinate	-11.2546
▁lesson	-11.2547
▁ditch	-11.2559
▁dump	-11.256
rina	-11.256
▁advise	-11.256
▁Player	-11.2561
▁disturbing	-11.2562
▁cocktail	-11.2562
▁longtime	-11.2563
▁Bradford	-11.2563
▁Small	-11.2564
▁chill	-11.2568
▁Swedish	-11.2571
▁tribunal	-11.2571
▁peer	-11.2571
▁Tal	-11.2572
▁fairly	-11.2577
€	-11.2577
▁sufficient	-11.2578
▁Sturridge	-11.2579
▁elaborate	-11.2579
▁Liz	-11.2582
▁spare	-11.2586
▁festive	-11.2587
▁unnamed	-11.2587
▁dish	-11.2588
▁dangers	-11.2589
▁arranged	-11.2589
cca	-11.2591
▁employers	-11.2591
trick	-11.2591
▁header	-11.2594
▁bronze	-11.2595
▁canceled	-11.2597
▁weighing	-11.2603
▁1-1	-11.2607
▁habit	-11.2608
▁4,000	-11.261
body	-11.2611
heat	-11.2614
▁steer	-11.2618
▁gadget	-11.262
▁mysterious	-11.262
,300	-11.2621
lov	-11.2625
▁demonstration	-11.2629
hou	-11.2631
▁oppose	-11.2633
▁modest	-11.2636
▁120	-11.2636
using	-11.2637
ender	-11.2638
▁portray	-11.264
▁Happy	-11.2641
▁bombings	-11.2642
▁Harper	-11.2645
▁Benjamin	-11.2645
▁rubbish	-11.2645
▁treasure	-11.2645
▁transform	-11.2645
▁bang	-11.2651
▁assaulting	-11.2651
▁cleaning	-11.2655
▁anyway	-11.2656
▁beaches	-11.2659
▁battled	-11.2662
▁coffin	-11.2662
▁Manager	-11.2662
▁Jeffrey	-11.2662
oni	-11.2666
▁acid	-11.2667
▁Colin	-11.2669
▁Pyongyang	-11.267
▁Jun	-11.2672
▁Low	-11.2672
▁firearms	-11.2674
new	-11.2675
▁searches	-11.2676
▁caps	-11.2678
▁touching	-11.268
▁Bir	-11.2682
▁84	-11.2683
active	-11.2683
▁Arena	-11.2683
▁arguments	-11.2685
bla	-11.2685
▁missiles	-11.2687
▁Christine	-11.2689
▁raping	-11.2691
▁membership	-11.2692
bank	-11.2693
▁vessels	-11.2694
▁Interior	-11.2695
▁chemotherapy	-11.2695
▁fiscal	-11.2695
▁apologized	-11.2698
▁retire	-11.2698
▁Harrison	-11.2699
▁executives	-11.2699
▁passage	-11.2703
▁Croatia	-11.2704
▁Hand	-11.2706
type	-11.2707
▁passionate	-11.2707
show	-11.2708
▁Portuguese	-11.2712
▁hood	-11.2712
▁Change	-11.2713
▁respected	-11.2714
▁cargo	-11.2718
▁Airways	-11.2721
▁Rogers	-11.2723
▁circuit	-11.2729
▁Pur	-11.2737
,600	-11.2739
▁tipped	-11.2739
▁tracking	-11.2739
Then	-11.2744
▁Chairman	-11.2746
▁radar	-11.2746
,800	-11.2746
▁consideration	-11.2748
▁copies	-11.2748
▁BP	-11.2753
▁Disease	-11.2754
▁angle	-11.2755
▁unlike	-11.2757
▁classified	-11.2757
▁Command	-11.2758
▁enforce	-11.2762
keeper	-11.2763
▁electrical	-11.2765
▁Fear	-11.2765
▁disability	-11.2766
▁files	-11.277
mine	-11.2771
▁aviation	-11.2771
member	-11.2771
▁PR	-11.2772
walk	-11.2772
▁Village	-11.2775
serving	-11.2775
▁shoe	-11.2776
horn	-11.2776
aba	-11.2776
▁athletic	-11.2779
▁Luc	-11.278
Ex	-11.278
▁cab	-11.2783
▁chip	-11.2783
▁adoption	-11.2787
▁Constitution	-11.2788
▁centuries	-11.2788
▁skirt	-11.2789
lent	-11.279
▁confidential	-11.279
mil	-11.2795
▁tracked	-11.2796
▁grief	-11.2796
Fa	-11.2796
▁te	-11.2798
▁hearts	-11.2802
▁ratings	-11.2805
▁boxing	-11.2805
▁appealed	-11.2809
love	-11.2811
▁formation	-11.2813
▁magistrate	-11.2813
▁partly	-11.2818
▁risen	-11.2819
▁deciding	-11.2822
▁concentrate	-11.2822
▁Coroner	-11.2822
▁Herald	-11.2822
▁offender	-11.2826
count	-11.283
▁Bloomberg	-11.2831
▁warns	-11.2834
▁prestigious	-11.2839
▁unaware	-11.2839
▁abusing	-11.284
▁1988	-11.284
▁organs	-11.2842
▁tune	-11.2844
▁starred	-11.2845
▁trap	-11.2846
▁affidavit	-11.2847
▁Abdullah	-11.2847
▁undermine	-11.2849
-19	-11.2853
▁fires	-11.2856
▁Prize	-11.2858
▁ridiculous	-11.2859
▁revelations	-11.2866
ific	-11.2877
▁politically	-11.2877
▁sued	-11.2878
loo	-11.2879
06	-11.2879
▁Factor	-11.2883
▁banking	-11.2883
▁dated	-11.2889
▁Az	-11.2889
▁Orlando	-11.289
Go	-11.2891
▁magic	-11.2895
rack	-11.2896
watch	-11.2897
▁Falcao	-11.2898
▁sketch	-11.2898
▁Dylan	-11.2898
enne	-11.2899
col	-11.2907
▁grandchildren	-11.2907
▁Rosberg	-11.2907
▁DJ	-11.2908
+	-11.2909
tie	-11.2909
EN	-11.2914
has	-11.2915
▁Until	-11.2917
▁Phillip	-11.2918
▁Hat	-11.2921
▁fleeing	-11.2921
▁coma	-11.2923
▁Question	-11.2924
▁sandwich	-11.2924
▁Melissa	-11.2924
▁History	-11.2924
▁Rand	-11.2926
pli	-11.2927
OS	-11.2929
▁spirits	-11.293
▁scrutiny	-11.2933
▁Fat	-11.2935
▁ammunition	-11.2941
▁£100	-11.2941
▁Denmark	-11.2942
▁01	-11.2942
▁entertain	-11.2942
sses	-11.2942
▁patterns	-11.2945
▁Whi	-11.2946
▁inspire	-11.2946
ien	-11.2947
▁conceded	-11.295
▁coastal	-11.295
▁Ecuador	-11.295
▁Thanksgiving	-11.295
▁boil	-11.295
▁Place	-11.295
▁caption	-11.2951
▁82	-11.2954
ulating	-11.2954
▁Reagan	-11.2958
position	-11.2959
▁thousand	-11.2959
▁Grim	-11.2964
▁expects	-11.2964
▁mode	-11.2966
▁1982	-11.2967
▁spreading	-11.2973
Let	-11.2973
▁hack	-11.2973
▁component	-11.2975
▁lavish	-11.2975
▁preliminary	-11.2975
▁depart	-11.2976
▁Dorset	-11.2977
last	-11.2979
▁Hal	-11.2981
wash	-11.2981
▁shouted	-11.2982
▁Queens	-11.2985
▁greet	-11.2988
Everyone	-11.2988
▁Holly	-11.2989
▁readers	-11.2989
▁blonde	-11.299
▁sneak	-11.2993
▁Organization	-11.2993
▁offense	-11.2993
▁presents	-11.2994
▁Maybe	-11.2994
▁advocate	-11.2995
▁Jobs	-11.2995
come	-11.3
▁beef	-11.3001
Neill	-11.3002
▁attackers	-11.3002
▁x	-11.3003
▁Linda	-11.3005
▁Coalition	-11.301
pul	-11.3012
Because	-11.3012
▁beard	-11.3016
▁ads	-11.3017
▁diseases	-11.3017
▁Boo	-11.3018
▁Clo	-11.3018
▁strategic	-11.3019
▁Development	-11.302
ika	-11.3026
▁jewellery	-11.3027
45	-11.3028
▁comeback	-11.3028
▁Ak	-11.3029
▁Wigan	-11.3033
▁restrict	-11.3033
▁drones	-11.3038
▁coaches	-11.3038
▁retailers	-11.3041
▁dash	-11.3041
wal	-11.3043
▁Cav	-11.305
▁Leone	-11.3052
▁announcing	-11.3053
▁nephew	-11.3053
▁removal	-11.3053
▁Weather	-11.3053
▁ingredients	-11.3053
▁Torres	-11.3054
▁42,	-11.3054
▁breathe	-11.3055
▁confrontation	-11.3057
▁79	-11.3059
▁Fac	-11.306
road	-11.306
▁furniture	-11.3062
▁audio	-11.3062
IL	-11.3063
▁88	-11.3064
▁campaigners	-11.3066
▁Ellis	-11.3067
▁Homeland	-11.3077
▁Kit	-11.3077
▁suite	-11.3078
▁calendar	-11.3079
▁phenomenon	-11.3079
▁printed	-11.3079
gri	-11.308
▁basement	-11.3086
▁instructions	-11.3087
▁lens	-11.309
▁Cohen	-11.3091
▁difficulty	-11.3091
▁subsequent	-11.3092
▁Sale	-11.3097
▁militia	-11.3097
▁cruel	-11.3098
▁Ple	-11.3099
aught	-11.3103
▁Executive	-11.3105
▁33-	-11.3106
▁wreckage	-11.3107
▁confront	-11.3107
▁diving	-11.3109
▁governing	-11.3114
▁£20	-11.3114
▁Arkansas	-11.3114
▁charities	-11.3114
▁underneath	-11.3114
▁residential	-11.3116
idi	-11.312
Li	-11.312
▁Transport	-11.3122
▁Bieber	-11.3123
▁bargain	-11.3123
▁explaining	-11.3124
▁commonly	-11.3128
▁rolling	-11.3128
▁Singh	-11.3128
▁43,	-11.3129
▁trash	-11.3132
▁burial	-11.3132
▁burden	-11.3133
▁spacecraft	-11.3133
▁Delhi	-11.3134
▁governments	-11.3135
track	-11.3136
▁suggestion	-11.3137
▁unions	-11.314
75	-11.3141
From	-11.3143
tha	-11.3144
▁dollar	-11.3147
▁scream	-11.3147
▁Iron	-11.3147
mission	-11.3148
▁pointing	-11.3149
▁Moss	-11.3151
▁Cost	-11.3154
▁rises	-11.3155
▁spider	-11.3158
▁insisting	-11.3159
▁improvement	-11.3163
▁generate	-11.3164
▁latter	-11.3169
▁Bird	-11.3171
▁Parents	-11.3171
eff	-11.3172
▁creature	-11.3174
▁Monte	-11.3174
▁delivering	-11.3175
▁Banks	-11.3176
▁MH	-11.3176
▁Algeria	-11.3177
▁Click	-11.3178
▁shortage	-11.3183
▁heritage	-11.3184
ori	-11.3187
▁sealed	-11.3191
agon	-11.3191
▁guitar	-11.3193
▁respectively	-11.3193
▁32-	-11.3194
▁handgun	-11.3195
FA	-11.3197
▁divide	-11.3199
▁extract	-11.32
▁scare	-11.3202
roy	-11.3204
gard	-11.3205
▁borders	-11.3208
▁doubled	-11.3214
▁theatre	-11.3215
game	-11.3217
▁rob	-11.3217
▁comic	-11.3218
▁gut	-11.3219
▁impose	-11.3225
▁Criminal	-11.3228
▁preventing	-11.323
▁Kiev	-11.323
▁collective	-11.3233
▁1979	-11.3237
▁confused	-11.3237
▁sink	-11.3237
▁intercept	-11.3237
▁Auto	-11.3238
▁violations	-11.3239
▁charm	-11.3239
western	-11.3239
▁Witnesses	-11.324
▁Orange	-11.3242
▁endured	-11.3249
▁Broad	-11.3251
utter	-11.3254
▁gig	-11.3255
▁removing	-11.3255
▁Dead	-11.326
▁Fin	-11.3261
▁Capitol	-11.3264
▁administrator	-11.3264
▁pupil	-11.3264
▁steam	-11.3264
▁Line	-11.3268
▁Lan	-11.3269
etic	-11.3271
▁snack	-11.3273
▁rope	-11.3273
▁Help	-11.3276
▁Room	-11.328
▁slept	-11.3281
▁reminder	-11.3282
▁casualties	-11.3282
there	-11.3285
▁Mason	-11.3288
logy	-11.3288
hem	-11.3288
▁signals	-11.329
▁Brook	-11.329
▁parliamentary	-11.3293
▁undercover	-11.3295
▁transformed	-11.3297
▁Class	-11.3297
▁pioneer	-11.3299
▁exception	-11.33
▁ID	-11.3301
▁Program	-11.3301
▁opener	-11.3303
▁convince	-11.3305
▁collecting	-11.3306
▁dialogue	-11.3308
▁sole	-11.3313
▁infections	-11.3313
▁Highway	-11.3316
▁Veteran	-11.3317
▁exceed	-11.3317
▁schoolgirl	-11.3319
▁countryside	-11.3321
▁deserves	-11.3322
empt	-11.3324
▁FC	-11.3325
▁fossil	-11.3326
▁travelers	-11.3327
▁pants	-11.3327
▁shootings	-11.3328
▁tons	-11.3328
▁Range	-11.3333
▁kicking	-11.3333
▁grandson	-11.3335
▁surviving	-11.3335
▁recipe	-11.3335
▁shield	-11.3335
▁Jenkins	-11.3335
▁Julia	-11.3336
▁prohibit	-11.334
cru	-11.3341
▁fields	-11.3344
▁climbed	-11.3344
▁satisfied	-11.3346
▁jets	-11.3346
▁detected	-11.3347
▁butter	-11.3348
▁Model	-11.3351
▁Norfolk	-11.3353
▁unlawful	-11.3353
eur	-11.3353
fly	-11.3354
▁Intelligence	-11.3362
▁sophisticated	-11.3362
▁warming	-11.3363
▁appealing	-11.3368
▁Henderson	-11.3371
▁generous	-11.3371
osa	-11.3372
TM	-11.3372
BS	-11.338
▁useful	-11.3388
▁Federation	-11.3389
▁lesbian	-11.3389
▁publicity	-11.3389
▁barrel	-11.3393
storm	-11.3393
▁cosmetic	-11.3398
▁Sin	-11.3399
▁Peru	-11.34
▁somewhat	-11.3403
▁Thorn	-11.3403
nut	-11.3403
▁translate	-11.3406
▁revenge	-11.3407
▁Il	-11.3407
95	-11.3413
▁bullets	-11.3413
▁Joan	-11.3414
▁Griffith	-11.3416
▁Petraeus	-11.3416
▁accommodation	-11.3416
▁splash	-11.3416
ingham	-11.3419
acre	-11.3423
bid	-11.3427
wl	-11.3428
MP	-11.3429
▁Warner	-11.343
▁ramp	-11.343
▁viewing	-11.343
▁spots	-11.3432
▁grenade	-11.3434
▁airplane	-11.3434
▁83	-11.3434
▁38,	-11.344
▁Venezuela	-11.3442
Most	-11.3442
▁palace	-11.3443
▁Hot	-11.3444
▁Corps	-11.3444
▁Did	-11.3447
▁investigator	-11.3448
view	-11.345
▁jokes	-11.3452
▁wander	-11.3452
arra	-11.3453
▁Katherine	-11.3461
▁Rhode	-11.3461
▁sprint	-11.3461
▁acceptable	-11.3463
▁focusing	-11.3465
▁87	-11.3465
▁root	-11.3466
▁Somali	-11.3468
▁Baltimore	-11.347
▁lined	-11.347
feld	-11.3472
▁rapid	-11.3476
▁temporarily	-11.3479
▁Tyler	-11.3481
▁contestant	-11.3483
▁sample	-11.3485
▁Masters	-11.3487
▁Buckingham	-11.3488
▁disciplinary	-11.3488
▁struggles	-11.3488
▁ensur	-11.3489
ologists	-11.3491
▁Ski	-11.3494
ET	-11.3495
▁Berry	-11.3496
▁decent	-11.3496
▁comprehensive	-11.3497
▁academy	-11.3497
▁nominated	-11.3497
▁opted	-11.3497
▁insight	-11.3498
OL	-11.3499
▁Within	-11.3499
▁Barnes	-11.3501
▁disappear	-11.3502
▁bro	-11.3506
▁1984	-11.3506
▁Dream	-11.3506
stage	-11.3509
▁champagne	-11.3515
▁immune	-11.3515
▁asteroid	-11.3515
pass	-11.3515
bie	-11.3522
▁trailer	-11.3522
acher	-11.3523
▁tin	-11.3526
▁Born	-11.3528
▁Lyn	-11.3529
▁Sar	-11.3531
BA	-11.3534
Te	-11.3535
▁Audi	-11.3537
▁reunited	-11.3538
▁greeted	-11.3538
▁laser	-11.3539
▁allegation	-11.3541
Her	-11.3542
▁vocal	-11.3542
▁slogan	-11.3542
▁divers	-11.3544
▁Mall	-11.3551
home	-11.3558
▁Crimea	-11.3561
▁emotions	-11.3562
▁Swa	-11.3564
▁inspect	-11.3566
▁Bart	-11.3566
▁bun	-11.3567
▁discharged	-11.3571
▁flags	-11.3572
deep	-11.3577
▁library	-11.3579
▁banner	-11.3579
lution	-11.3579
▁00	-11.358
▁Marshall	-11.3581
Thank	-11.3582
hit	-11.3584
▁39,	-11.3585
▁determination	-11.3588
▁glimpse	-11.3588
▁releasing	-11.3588
▁script	-11.3591
TE	-11.3592
▁Liam	-11.3594
▁chop	-11.3595
▁hugely	-11.3596
▁supplement	-11.3597
▁jeans	-11.3597
▁abusive	-11.3597
▁stag	-11.36
OW	-11.3602
▁Chad	-11.3604
▁cheat	-11.3605
▁timing	-11.3607
▁Preston	-11.3608
▁Berg	-11.3608
▁lasted	-11.3609
▁£15	-11.361
▁Search	-11.3616
une	-11.3619
▁fatally	-11.3622
▁compare	-11.3622
▁devoted	-11.3623
▁temp	-11.3624
clo	-11.3624
▁Above	-11.3625
▁slice	-11.3625
lian	-11.3631
▁Qui	-11.3631
▁apologize	-11.3631
▁ignore	-11.3631
▁glow	-11.3632
▁inner	-11.3633
▁chi	-11.3635
city	-11.3635
▁Reed	-11.3638
▁wings	-11.3642
▁update	-11.3643
▁underwear	-11.3651
▁revive	-11.3653
▁recalls	-11.3662
▁Using	-11.3662
cio	-11.3667
▁81	-11.3669
▁Hispanic	-11.3671
▁researcher	-11.3671
▁foster	-11.3673
hart	-11.3673
▁punish	-11.3674
▁Walsh	-11.3676
▁establishment	-11.368
▁amateur	-11.368
placed	-11.3683
▁eBay	-11.3689
▁Chen	-11.3694
▁formula	-11.3694
▁Market	-11.3694
▁cops	-11.3695
witt	-11.3696
▁37,	-11.3696
erie	-11.3698
▁Keane	-11.37
▁mat	-11.37
▁principle	-11.3702
rest	-11.3703
▁41,	-11.3704
▁speeds	-11.3704
▁excitement	-11.3708
▁prosecuting	-11.3708
▁Durham	-11.3709
▁Pick	-11.3715
Ta	-11.3716
▁stranded	-11.3717
▁carriage	-11.3717
▁reckless	-11.3717
▁Walk	-11.3717
Or	-11.3718
▁Palm	-11.372
▁conducting	-11.3721
sville	-11.3722
▁Kara	-11.3725
shaped	-11.3725
▁Division	-11.3728
▁Lucas	-11.3729
▁Base	-11.373
▁install	-11.3731
▁Carol	-11.3735
▁Assistant	-11.3735
▁Qua	-11.3738
ographic	-11.3742
▁restored	-11.3742
▁Fulham	-11.3745
▁concentration	-11.3745
▁fundraising	-11.3745
▁50-	-11.3747
▁fool	-11.3748
▁washed	-11.3751
▁hire	-11.3751
▁Alzheimer	-11.3754
ui	-11.3755
/1	-11.3757
▁Zimbabwe	-11.3763
▁creatures	-11.3765
▁Casey	-11.3766
▁(2	-11.3767
▁tire	-11.3768
▁Economic	-11.3773
▁resemble	-11.3773
▁Patrol	-11.3773
▁constitution	-11.3778
▁whip	-11.3781
▁grandparents	-11.3782
fil	-11.3784
▁legendary	-11.3785
▁ownership	-11.3787
▁+	-11.3789
▁commissioned	-11.3792
▁engineers	-11.3795
serve	-11.3796
▁Grey	-11.3797
▁Gui	-11.3801
▁Management	-11.3801
▁clutch	-11.3801
cover	-11.3801
▁Arctic	-11.3802
▁Malaysian	-11.3804
▁refugee	-11.3812
▁6-3	-11.3814
wise	-11.3818
▁tooth	-11.3821
▁Bud	-11.3822
▁Hawk	-11.3824
▁costing	-11.3825
fight	-11.3827
▁Spaniard	-11.3829
▁DC	-11.3834
metre	-11.3836
who	-11.3836
▁distinct	-11.3836
gress	-11.3837
▁universities	-11.3838
▁emissions	-11.3838
eck	-11.384
▁cabinet	-11.3842
▁explicit	-11.3848
▁Shiite	-11.3849
AF	-11.3853
▁conservation	-11.3857
▁Kenyan	-11.3859
▁cigarette	-11.3861
▁Ryder	-11.3867
▁Shu	-11.3871
▁unfortunate	-11.3871
▁prey	-11.3874
▁tri	-11.3875
▁Prevention	-11.3876
▁monarch	-11.3876
▁emotion	-11.3877
▁Easter	-11.3881
▁worrying	-11.3881
inder	-11.3883
▁rub	-11.3883
▁hurricane	-11.3885
▁volcano	-11.3885
bad	-11.3887
▁Op	-11.3897
▁exceptional	-11.3898
direct	-11.3901
▁requirements	-11.3902
▁delight	-11.3903
▁suits	-11.391
▁innocence	-11.3914
▁lorry	-11.3914
▁fulfill	-11.3914
▁dirty	-11.3914
▁patron	-11.3914
kel	-11.392
▁Guy	-11.3921
▁lightning	-11.3923
media	-11.3923
▁vow	-11.3926
bn	-11.3932
▁chapter	-11.3932
▁haunt	-11.3933
▁gunmen	-11.3933
▁drum	-11.3934
▁stir	-11.3935
being	-11.3937
▁bush	-11.3939
▁THE	-11.3942
▁checking	-11.3949
▁stored	-11.3953
▁Left	-11.3959
▁Fran	-11.396
▁Globe	-11.3962
▁unhappy	-11.3962
▁serves	-11.3964
▁Pay	-11.3965
▁demonstrated	-11.3965
NC	-11.3966
dging	-11.3967
▁Dam	-11.3968
▁intimate	-11.3971
▁queue	-11.3971
nation	-11.3971
▁hometown	-11.3972
hurst	-11.3974
▁publish	-11.3974
▁hung	-11.3974
cco	-11.3976
mbo	-11.3977
▁Beat	-11.3977
Shabaab	-11.398
psycho	-11.398
▁Full	-11.3982
Many	-11.3985
master	-11.3988
▁Welbeck	-11.3989
▁airstrikes	-11.3989
▁premature	-11.3989
▁Norwich	-11.399
▁bold	-11.3992
▁coaching	-11.3993
▁nest	-11.3994
▁span	-11.3997
▁administer	-11.3999
▁Carroll	-11.4001
threatening	-11.4003
Na	-11.4004
friendly	-11.4006
▁loaded	-11.4006
▁mild	-11.4009
▁handset	-11.4015
▁Count	-11.4016
▁motivation	-11.4018
wall	-11.402
▁Ji	-11.4021
flow	-11.4023
▁stranger	-11.4024
▁bur	-11.4024
▁Anton	-11.4027
▁Stephanie	-11.4028
200	-11.4029
▁thigh	-11.4029
▁Talk	-11.403
▁rap	-11.4031
▁System	-11.4037
▁paedophile	-11.4037
▁Tunisia	-11.4037
action	-11.4038
▁floating	-11.4038
rv	-11.4041
▁overweight	-11.4042
▁Bee	-11.4042
▁Dakota	-11.4047
▁Mick	-11.4051
▁Perth	-11.4051
human	-11.4052
▁Vel	-11.4056
▁creator	-11.4056
▁Lance	-11.4057
▁pastor	-11.4058
▁1985	-11.4058
▁£50	-11.4059
▁humanity	-11.406
▁Delta	-11.4061
bling	-11.4061
stop	-11.4064
bone	-11.4064
▁abducted	-11.4066
▁crystal	-11.4067
▁polar	-11.4068
▁Victorian	-11.4068
▁instantly	-11.4068
▁Aid	-11.4069
▁slot	-11.4071
LL	-11.4071
▁Action	-11.4072
▁deter	-11.4072
SS	-11.4074
▁Rh	-11.4074
▁evacuation	-11.4076
▁Staffordshire	-11.4076
▁prayer	-11.4078
▁Sochi	-11.4083
▁Omar	-11.4083
▁Look	-11.4086
▁Transportation	-11.4088
▁manufacturers	-11.409
▁lad	-11.4094
▁700	-11.4094
▁Financial	-11.4095
▁precaution	-11.4095
▁Passenger	-11.4095
▁31-	-11.4099
via	-11.41
▁86	-11.4101
lated	-11.4102
▁triple	-11.4103
▁Election	-11.4104
▁engines	-11.4106
▁edit	-11.4106
▁Hugo	-11.4106
▁rum	-11.4108
imi	-11.4109
▁dolphin	-11.4114
▁trousers	-11.4114
▁slaughter	-11.4114
▁Number	-11.4115
oul	-11.4116
▁cigarettes	-11.4116
▁helicopters	-11.4119
▁motorists	-11.4123
▁uncomfortable	-11.4124
▁Osama	-11.4124
▁FDA	-11.4127
▁boxer	-11.4128
▁Gas	-11.4132
▁rumours	-11.4133
▁superb	-11.4134
▁Which	-11.4136
▁Cox	-11.4137
▁Mann	-11.4138
rite	-11.4143
▁drought	-11.4143
Obviously	-11.4143
▁Golf	-11.4146
ING	-11.4148
▁transportation	-11.4149
▁Reading	-11.4151
▁hospitalized	-11.4151
▁Alonso	-11.4153
▁Tampa	-11.4154
cke	-11.4154
▁rapper	-11.4154
▁Rush	-11.4162
▁bore	-11.4164
▁ferry	-11.4165
▁kilo	-11.4165
▁hungry	-11.4165
▁assassination	-11.4165
▁disputed	-11.4166
▁Hook	-11.4168
▁cancel	-11.417
lene	-11.417
▁producers	-11.4173
▁speeding	-11.4176
▁Sandusky	-11.4182
▁Hudson	-11.4182
▁sal	-11.4188
▁ranging	-11.4189
▁discussing	-11.4191
▁Damascus	-11.4192
▁Marathon	-11.4192
▁complications	-11.4192
▁neighboring	-11.4196
▁certificate	-11.4201
▁miracle	-11.4201
▁observation	-11.4201
▁Eddie	-11.4203
▁AT	-11.4206
▁Mau	-11.4208
▁slave	-11.4209
grand	-11.4218
etta	-11.4218
▁declare	-11.4219
▁convention	-11.4222
▁households	-11.4223
65	-11.4223
ease	-11.4224
Di	-11.4227
▁purposes	-11.4228
▁Kat	-11.4229
▁comply	-11.4231
▁tongue	-11.4231
▁Iceland	-11.4232
▁Horn	-11.4232
rome	-11.4233
founder	-11.4233
▁Hague	-11.4233
▁happiness	-11.424
▁separatist	-11.424
▁historian	-11.424
▁smartphones	-11.424
Well	-11.424
▁interpret	-11.4245
▁CO	-11.4246
▁curve	-11.4247
▁supportive	-11.4252
▁precious	-11.4253
▁distract	-11.4253
▁transported	-11.426
▁beliefs	-11.4261
pra	-11.4261
EL	-11.4268
▁belonged	-11.4268
▁1987	-11.427
▁Czech	-11.427
▁companion	-11.427
▁IT	-11.427
▁resistance	-11.4271
▁Europa	-11.4272
▁euros	-11.4272
EC	-11.4274
▁autism	-11.428
▁citizenship	-11.4281
▁Express	-11.4282
▁approaching	-11.4284
▁Est	-11.4284
▁euro	-11.4287
▁rang	-11.4288
▁Hussein	-11.4289
▁pollution	-11.4289
▁whistle	-11.4289
aya	-11.4289
▁habits	-11.429
▁Ramsey	-11.429
▁marking	-11.4292
fan	-11.4292
▁subway	-11.4294
rod	-11.4295
▁burglar	-11.4296
▁evolution	-11.4299
▁reluctant	-11.4299
▁Gardner	-11.4299
▁donors	-11.43
▁Moon	-11.4303
▁absolute	-11.4305
ante	-11.4308
▁Earl	-11.4308
▁Jerusalem	-11.4309
▁predecessor	-11.4309
▁sculpture	-11.4309
▁bucket	-11.4311
▁Bryan	-11.4312
▁Pep	-11.4313
▁embarrassed	-11.4314
▁distribution	-11.4319
▁estranged	-11.4319
▁goodbye	-11.4319
▁Flower	-11.4319
,200	-11.432
NS	-11.432
duction	-11.4323
▁nutrition	-11.4329
▁submarine	-11.4329
▁vicious	-11.4329
▁Corn	-11.4329
▁swear	-11.4329
▁chemicals	-11.4331
▁Salt	-11.4338
▁stairs	-11.4339
▁pornography	-11.4339
▁assumed	-11.4339
▁topped	-11.4346
▁Capt	-11.4347
▁Gene	-11.4347
▁console	-11.4349
▁photography	-11.4349
▁Plus	-11.435
▁Nico	-11.435
▁publisher	-11.4351
team	-11.4352
▁mill	-11.4355
▁Haram	-11.4357
▁Diamond	-11.4358
▁inflation	-11.4358
▁Target	-11.4359
▁Match	-11.4367
▁trademark	-11.437
▁alleges	-11.4371
▁travellers	-11.4378
lou	-11.4379
▁Stefan	-11.4379
▁Blues	-11.438
▁attendance	-11.4382
▁wrongdoing	-11.4388
SE	-11.439
▁realistic	-11.4394
▁wheels	-11.4396
▁Dame	-11.4397
ROLL	-11.4398
bru	-11.4404
how	-11.4405
▁Xi	-11.4407
▁pursuit	-11.4408
▁privately	-11.441
▁grin	-11.4414
▁Band	-11.4417
▁tremendous	-11.4418
▁plug	-11.4418
▁quake	-11.4419
▁Keep	-11.4425
▁observed	-11.4425
▁upgrade	-11.4425
▁raided	-11.4433
▁controller	-11.4433
open	-11.4433
▁commentator	-11.4434
▁database	-11.4438
sea	-11.444
▁stormed	-11.4447
▁premium	-11.4448
▁switched	-11.4448
▁indicted	-11.4448
▁hub	-11.445
quest	-11.4454
▁Horse	-11.4455
▁hijack	-11.4458
▁expanded	-11.4459
▁Much	-11.446
▁voices	-11.446
▁showcase	-11.4461
selling	-11.4463
▁developers	-11.4463
▁crawl	-11.4468
▁expire	-11.4469
▁Fast	-11.4478
▁universe	-11.4478
▁fare	-11.448
▁Style	-11.448
osis	-11.4482
▁structures	-11.4483
▁hacked	-11.4483
▁safer	-11.4483
pay	-11.4485
▁Tin	-11.4486
▁Ruth	-11.4487
▁epidemic	-11.4488
▁uprising	-11.4488
,700	-11.4489
working	-11.4493
▁bedrooms	-11.4495
▁muscles	-11.4496
▁Challenge	-11.4498
▁Kil	-11.4498
▁briefing	-11.4498
▁obese	-11.4498
yu	-11.45
▁Weekly	-11.4501
▁artwork	-11.4501
▁generated	-11.4502
▁underway	-11.4503
word	-11.4505
▁influential	-11.4508
▁manufacturing	-11.4508
▁UKIP	-11.4508
▁pleasure	-11.4508
▁fitting	-11.451
▁paintings	-11.4512
▁suburban	-11.4516
Hu	-11.4517
▁pleading	-11.4517
▁Marines	-11.4517
▁juvenile	-11.4518
▁tobacco	-11.4518
▁pope	-11.4518
▁coal	-11.4519
▁Raj	-11.452
▁horn	-11.452
▁Heather	-11.452
cm	-11.4521
▁blogger	-11.4521
▁Dur	-11.4524
▁isolation	-11.4528
mini	-11.4529
▁manufacturer	-11.4529
▁staged	-11.4532
▁Erik	-11.4535
▁Technology	-11.4538
▁healthcare	-11.4542
Com	-11.4547
▁nude	-11.4547
▁unveil	-11.4547
▁servant	-11.4548
▁choosing	-11.4548
▁physician	-11.4548
▁Glenn	-11.4549
dine	-11.455
powered	-11.4551
▁Palestinians	-11.4551
▁sting	-11.4552
▁weaken	-11.4553
▁Swan	-11.4555
▁stab	-11.4557
▁Made	-11.4559
▁crush	-11.4564
▁BA	-11.4567
▁Chapman	-11.4568
▁teammate	-11.4577
▁perception	-11.4578
▁IRS	-11.4578
▁spec	-11.4579
▁interim	-11.4581
▁essentially	-11.4584
▁washing	-11.4584
▁Merc	-11.4587
▁integrity	-11.4588
▁unsuccessful	-11.4588
▁mandate	-11.459
gun	-11.459
▁equality	-11.4595
▁Bloom	-11.4598
▁powder	-11.4598
▁McLaren	-11.4598
▁pur	-11.4601
▁quote	-11.4603
▁promoted	-11.4604
▁Isle	-11.4607
yle	-11.4607
▁Jake	-11.4607
▁cleaner	-11.4608
▁Jackie	-11.4609
▁hosting	-11.461
▁drunken	-11.4618
▁Heritage	-11.4619
▁rubber	-11.4619
▁contracted	-11.4621
bou	-11.4621
▁flare	-11.4622
▁Manning	-11.4623
▁holder	-11.4625
▁Boko	-11.4625
▁makers	-11.4626
▁heated	-11.4627
thy	-11.4629
▁spree	-11.4629
rgent	-11.4631
illi	-11.4632
▁efficient	-11.4633
▁decrease	-11.4639
▁disappointment	-11.4639
▁innovation	-11.4639
▁castle	-11.4641
▁depending	-11.4641
▁clever	-11.4642
▁grace	-11.4642
▁committing	-11.4643
aka	-11.4645
▁element	-11.4647
▁sentiment	-11.4649
proof	-11.465
▁preserve	-11.465
▁secretly	-11.4655
▁Bulger	-11.4659
▁glamorous	-11.4659
▁swallow	-11.4659
▁Fans	-11.466
▁cooperation	-11.466
▁Austria	-11.4662
white	-11.4665
▁Fil	-11.4665
▁overdose	-11.467
▁sham	-11.4671
▁1,500	-11.4671
▁premiere	-11.4674
▁Alice	-11.4679
▁Kir	-11.468
▁shotgun	-11.4682
▁Half	-11.4683
▁inspector	-11.4684
▁weighs	-11.4685
NE	-11.4687
▁boarding	-11.4688
AD	-11.4689
▁Donetsk	-11.469
▁HERE	-11.469
▁pistol	-11.469
▁embark	-11.469
▁badge	-11.4691
▁juice	-11.4691
'(	-11.4691
fat	-11.4694
▁Jer	-11.47
▁Shanghai	-11.47
▁knot	-11.4702
▁prosecuted	-11.4704
▁Page	-11.4708
▁Gove	-11.4708
▁advocates	-11.4708
▁assume	-11.471
▁siege	-11.471
▁Portland	-11.4715
▁fetch	-11.4722
▁Nicolas	-11.4726
▁shipping	-11.4728
▁obligation	-11.4731
▁romance	-11.4731
▁vitamin	-11.4731
▁Spo	-11.4734
▁shoulders	-11.4736
race	-11.4743
▁Sullivan	-11.4745
▁Mills	-11.4748
▁thanked	-11.4748
wai	-11.4751
-4	-11.4752
▁pepper	-11.4753
▁immigrant	-11.4753
▁differently	-11.4755
▁flock	-11.4756
PS	-11.476
▁Pochettino	-11.4762
▁judicial	-11.4762
▁measured	-11.4764
▁lungs	-11.4767
▁Tech	-11.4769
▁affordable	-11.4769
▁conservatives	-11.4771
▁Blanc	-11.4772
▁sunshine	-11.4772
Brien	-11.4773
▁Sharon	-11.4774
▁blew	-11.4782
▁Gunners	-11.4782
▁Storm	-11.4784
▁mistaken	-11.4785
▁£16	-11.4786
▁AS	-11.4788
▁titled	-11.4789
▁Make	-11.4789
▁£1,000	-11.4789
▁slight	-11.4791
▁grid	-11.4791
▁hardest	-11.4791
▁Benedict	-11.4793
▁DOWN	-11.4793
▁Private	-11.4793
▁nonprofit	-11.4793
▁fold	-11.4796
▁shy	-11.4802
▁hormone	-11.4803
▁qualifier	-11.4803
▁blown	-11.4804
▁roots	-11.4807
author	-11.4809
▁monthly	-11.4809
▁logo	-11.4812
▁Istanbul	-11.4813
▁captive	-11.4813
▁cried	-11.4815
▁millionaire	-11.482
▁Attack	-11.4824
▁complaining	-11.4826
tall	-11.4829
▁Hugh	-11.4831
▁ethic	-11.4832
▁monument	-11.4834
▁volley	-11.4834
▁assured	-11.4835
▁swimmer	-11.4836
▁Unlike	-11.4839
▁deserved	-11.4839
uma	-11.484
▁Along	-11.4842
▁Kane	-11.4842
▁Sid	-11.4843
▁insider	-11.4844
▁applaud	-11.4844
▁astonishing	-11.4844
▁endangered	-11.4844
AM	-11.4846
▁Rory	-11.4849
▁aerial	-11.4856
▁spike	-11.4857
▁forum	-11.4857
▁Richardson	-11.486
ID	-11.4862
▁strangers	-11.4866
▁Rosie	-11.4867
rou	-11.4868
▁Blu	-11.4868
▁whisk	-11.487
▁50,000	-11.4873
▁Blackburn	-11.4877
▁bodil	-11.4886
▁booking	-11.4887
▁folks	-11.4887
▁34-	-11.4889
order	-11.4892
▁Whether	-11.4892
ood	-11.4895
brook	-11.4895
▁Ref	-11.4895
▁backlash	-11.4896
▁withdrawal	-11.4896
▁contend	-11.4897
▁Dunn	-11.4898
world	-11.4903
▁firearm	-11.4906
▁Reynolds	-11.4907
▁Pack	-11.4908
▁Hayes	-11.491
anti	-11.4913
▁sharks	-11.4915
▁McCarthy	-11.4917
▁completing	-11.4917
zu	-11.4919
▁Hick	-11.492
party	-11.492
▁bubble	-11.4928
▁instructor	-11.4928
▁unemployed	-11.4929
▁stereo	-11.4929
▁Michel	-11.4929
borne	-11.493
▁punished	-11.4931
▁TSA	-11.4933
▁filter	-11.4938
▁Kabul	-11.4939
▁Wallace	-11.4939
▁Pictures	-11.494
▁sensation	-11.4941
▁Hack	-11.4942
▁float	-11.4943
chair	-11.4943
▁Dale	-11.4946
▁aspects	-11.4949
▁mainstream	-11.4949
▁glory	-11.495
▁Ice	-11.4953
▁Congo	-11.4953
▁monitored	-11.4954
Sp	-11.4955
▁geo	-11.4956
ride	-11.4957
▁TMZ	-11.4959
food	-11.4959
izer	-11.4965
▁expense	-11.4967
▁valued	-11.4969
▁1981	-11.497
▁Lions	-11.497
▁Med	-11.4973
risk	-11.4974
▁Colombian	-11.4975
▁attendant	-11.498
▁imprisonment	-11.498
▁intelligent	-11.498
great	-11.498
▁semifinal	-11.4982
▁Sally	-11.4982
▁Hil	-11.4983
▁ladies	-11.4983
▁6-4	-11.4983
▁£60	-11.4986
▁casual	-11.4989
▁Peninsula	-11.4991
▁feedback	-11.4993
▁Lynn	-11.4994
▁overturned	-11.4994
▁competitors	-11.4995
Can	-11.4998
gni	-11.5
▁Jamaica	-11.5001
▁introduction	-11.5001
▁thrilled	-11.5001
chen	-11.5003
hir	-11.5007
▁(19	-11.5007
Qu	-11.5011
▁insurgents	-11.5012
▁maintenance	-11.5012
▁confusion	-11.5012
after	-11.5013
▁Thi	-11.5016
▁mono	-11.5017
▁Representative	-11.5022
▁trusted	-11.5022
▁crashing	-11.5023
▁Fisher	-11.5025
▁Nobel	-11.5028
▁Ivan	-11.503
ndi	-11.503
▁robber	-11.504
OC	-11.5043
▁Amnesty	-11.5044
▁Bangladesh	-11.5044
▁ambitious	-11.5044
▁experiencing	-11.5044
▁fortunate	-11.5044
▁buzz	-11.5044
▁displaced	-11.5045
▁patent	-11.5045
▁outlets	-11.5046
▁Joel	-11.5048
complete	-11.505
▁Dow	-11.5051
▁curb	-11.5053
▁Maj	-11.5057
▁flip	-11.5059
▁policeman	-11.5061
▁contender	-11.5064
▁BMW	-11.5065
▁RSPCA	-11.5065
▁deputies	-11.5065
▁squeeze	-11.5065
Once	-11.507
▁AM	-11.5071
▁Recent	-11.5072
▁commented	-11.5072
force	-11.5073
▁bunch	-11.5073
▁donation	-11.5074
▁regulation	-11.5075
▁tropical	-11.5075
▁meteor	-11.5077
▁considerable	-11.5079
▁Looking	-11.508
▁teammates	-11.5083
▁Prior	-11.5084
▁anxious	-11.5086
▁Unfortunately	-11.5087
hur	-11.5088
▁equipped	-11.509
▁solicitor	-11.509
▁Labor	-11.5093
▁hail	-11.5095
▁sauce	-11.5097
▁cared	-11.5098
▁Theresa	-11.5104
▁Lamb	-11.5106
▁mentor	-11.5106
▁Wilshere	-11.5107
▁motorcycle	-11.5107
mental	-11.5108
▁Hammond	-11.5109
▁Rolling	-11.5109
▁Mou	-11.5114
controlled	-11.5115
door	-11.5116
▁ritual	-11.5118
▁Acc	-11.5119
▁Foley	-11.5125
knit	-11.5126
▁stepping	-11.5127
▁enemies	-11.5129
▁ninth	-11.5129
▁Oprah	-11.5129
Ju	-11.5132
Although	-11.5135
▁indoor	-11.5135
▁sustain	-11.5138
▁kidnap	-11.5138
▁Kel	-11.5139
▁tanks	-11.5141
▁Chu	-11.5143
▁rented	-11.5143
▁epic	-11.5143
▁Franklin	-11.5143
▁Bern	-11.515
▁Wildlife	-11.5151
▁vent	-11.5153
Vi	-11.5153
▁Song	-11.5154
▁unfortunately	-11.5155
▁Gay	-11.5155
▁await	-11.516
▁Sergeant	-11.5161
▁Eagle	-11.5161
▁spiritual	-11.5162
▁chasing	-11.5163
▁earnings	-11.5163
▁lace	-11.5167
▁tension	-11.5168
▁principles	-11.5168
pack	-11.5168
▁addresses	-11.5169
▁boast	-11.517
▁Kardashian	-11.5171
▁recipient	-11.5171
▁tribal	-11.5172
▁Oak	-11.5173
▁automatic	-11.5177
pound	-11.5181
▁Find	-11.5181
▁spiral	-11.5182
▁stalk	-11.5184
▁confession	-11.5186
▁Danish	-11.5189
▁collector	-11.519
▁Saints	-11.5192
▁Netanyahu	-11.5193
▁approve	-11.5194
▁weird	-11.5196
▁filling	-11.5198
▁reflected	-11.5203
▁Liberty	-11.5204
▁extradition	-11.5204
▁granddaughter	-11.5204
▁Neville	-11.5207
▁dismiss	-11.5211
▁Cruise	-11.5212
▁eaten	-11.5214
bul	-11.5215
▁tele	-11.5215
▁ru	-11.5219
▁bonus	-11.5219
▁surely	-11.5219
▁arrangements	-11.5223
▁Coleman	-11.5226
▁Dark	-11.5227
▁spine	-11.5228
▁councillor	-11.5229
▁survivor	-11.5229
cott	-11.523
▁submit	-11.5234
miss	-11.5235
El	-11.5235
still	-11.5235
▁breakthrough	-11.5237
TC	-11.5238
▁Please	-11.5246
▁decorated	-11.5249
▁audit	-11.5251
▁margin	-11.5253
pur	-11.5256
▁temple	-11.5257
▁deportation	-11.5258
▁Lennon	-11.5258
RO	-11.5258
▁poisoning	-11.5262
▁tolerate	-11.5262
built	-11.5265
▁clues	-11.5267
▁humble	-11.5268
▁peers	-11.5268
▁Inn	-11.5269
▁workplace	-11.5272
lter	-11.5272
▁enthusiast	-11.5272
jack	-11.5273
▁bud	-11.5275
▁conscious	-11.5277
▁observers	-11.5281
verse	-11.5281
▁Rain	-11.5282
▁matching	-11.5284
▁murderer	-11.5285
▁prompt	-11.5286
HA	-11.5288
▁Paula	-11.5289
▁shaking	-11.529
▁retrieve	-11.529
▁brake	-11.5296
▁Roth	-11.5298
▁Johnny	-11.5303
HS	-11.5303
iro	-11.5303
▁restricted	-11.5307
▁dug	-11.5309
▁$20	-11.531
▁pills	-11.5311
▁Hazard	-11.5312
▁Sarkozy	-11.5312
▁cruelty	-11.5314
▁transcript	-11.5315
motion	-11.5315
▁perceived	-11.5318
▁rehabilitation	-11.5323
▁steep	-11.5323
▁Race	-11.5323
▁navy	-11.5323
▁shutdown	-11.5324
▁occupied	-11.5328
▁rehab	-11.5328
▁Detectives	-11.533
national	-11.533
▁partially	-11.5331
▁Cer	-11.5331
▁Everyone	-11.5334
▁exclud	-11.5334
▁crushed	-11.5335
▁Chuck	-11.5336
▁successor	-11.5341
▁consultation	-11.5343
▁Halloween	-11.5345
▁rhetoric	-11.5345
▁Reuters	-11.5345
▁yoga	-11.5345
▁bicycle	-11.5345
zan	-11.5348
claim	-11.535
only	-11.5354
friend	-11.5355
ule	-11.5355
▁Gilbert	-11.5356
▁Montana	-11.5356
▁Garner	-11.5361
chy	-11.5363
▁Neither	-11.5366
▁engaging	-11.5366
▁valid	-11.5366
▁headline	-11.5371
▁litter	-11.5372
▁Know	-11.5374
▁Suffolk	-11.5377
▁lecture	-11.5377
▁burger	-11.5379
▁instant	-11.5386
▁relieved	-11.5387
▁steady	-11.5388
▁vest	-11.5391
▁breakdown	-11.5393
▁replica	-11.5396
▁humor	-11.5399
▁Windsor	-11.5399
▁whereabouts	-11.54
▁laughed	-11.54
rah	-11.54
▁Girls	-11.5404
▁affecting	-11.5405
▁believing	-11.541
▁blade	-11.541
▁sailing	-11.5414
▁sheep	-11.5416
▁tide	-11.5418
▁inflict	-11.5418
▁Natalie	-11.5421
▁Timothy	-11.5421
▁gloves	-11.5421
▁blend	-11.5421
ij	-11.5422
▁Ble	-11.5422
▁premier	-11.5427
▁Protest	-11.5429
flat	-11.5431
▁anonymity	-11.5432
▁jersey	-11.5432
▁adequate	-11.5432
▁Ramos	-11.5435
▁Winston	-11.5435
drive	-11.5436
▁strongest	-11.5439
▁Ei	-11.5441
▁accent	-11.5444
▁Dawn	-11.5445
▁Anyone	-11.5446
▁30,000	-11.5446
▁choke	-11.5446
▁Neighbour	-11.5454
▁Rail	-11.5457
▁slump	-11.5458
▁lump	-11.5459
▁Reports	-11.5459
▁memo	-11.5461
▁psychiatric	-11.5465
▁plunged	-11.5467
▁cult	-11.5467
▁descend	-11.5467
▁vigil	-11.5469
▁Bet	-11.547
—	-11.5473
▁Kensington	-11.5476
▁aisle	-11.5479
▁Dal	-11.5481
school	-11.5484
sphere	-11.5484
▁Brun	-11.5485
▁Thor	-11.5485
▁Finally	-11.5486
▁Kenneth	-11.5487
▁Burns	-11.5489
▁Nation	-11.549
▁poured	-11.5493
▁Lind	-11.5495
▁resolved	-11.5496
▁shout	-11.5497
▁Building	-11.5498
▁primarily	-11.5498
▁remorse	-11.5498
▁Tripoli	-11.5499
▁Leigh	-11.5501
quarter	-11.5506
▁banning	-11.5506
rington	-11.5507
bell	-11.5509
▁prostitution	-11.551
▁serial	-11.551
▁Morsy	-11.5511
▁dread	-11.5511
▁preferred	-11.5512
▁secondary	-11.5517
▁sack	-11.5518
▁slaying	-11.5521
▁Windows	-11.5521
▁monster	-11.5521
▁bullied	-11.5521
▁Rich	-11.5527
▁impress	-11.5529
▁Revolution	-11.5532
▁Olympia	-11.5532
▁bikini	-11.5532
▁qualification	-11.5532
▁thus	-11.5532
▁Stu	-11.5535
▁Holy	-11.5536
▁Berlusconi	-11.5543
▁horrified	-11.5543
▁shelves	-11.5543
▁sue	-11.5543
▁blasted	-11.5548
tributed	-11.5552
kind	-11.5552
▁employer	-11.5552
▁Athletic	-11.5554
▁Guantanamo	-11.5554
▁propaganda	-11.5554
▁psychologist	-11.5554
▁chips	-11.5561
mount	-11.5562
▁buses	-11.5564
▁Finn	-11.5565
▁abduction	-11.5565
▁Kam	-11.5568
▁aspect	-11.5568
▁Francois	-11.5571
Mu	-11.5576
▁gambling	-11.5576
▁overhaul	-11.5576
shock	-11.5577
▁WW	-11.5581
▁chased	-11.5582
minating	-11.5583
▁credited	-11.5588
▁recommendations	-11.5588
▁checkpoint	-11.559
▁retailer	-11.5592
▁Conference	-11.5599
▁reinforce	-11.5599
▁Found	-11.5602
▁pressed	-11.5606
▁purse	-11.5607
▁reaches	-11.5607
▁Wang	-11.5608
cock	-11.5608
▁Norwegian	-11.561
▁Pippa	-11.561
▁renowned	-11.561
▁unarmed	-11.561
▁conclude	-11.5611
▁mega	-11.5613
▁improvements	-11.5615
▁momentum	-11.5619
▁skeleton	-11.5621
▁vintage	-11.5621
mortem	-11.5621
▁Bosnia	-11.5621
▁Self	-11.5622
▁prank	-11.5624
clear	-11.5624
ctive	-11.5624
▁sy	-11.5627
▁Actor	-11.5627
heim	-11.563
▁disruption	-11.5631
▁lied	-11.5632
▁compassion	-11.5632
▁fireworks	-11.5633
▁define	-11.5634
▁Mach	-11.5635
▁developer	-11.5639
▁scary	-11.5642
▁Cyprus	-11.5644
▁placing	-11.5644
▁unnecessary	-11.5644
▁Blatter	-11.5645
▁affection	-11.5645
▁Eng	-11.5651
▁elder	-11.5655
▁casino	-11.5655
hoe	-11.5656
▁Body	-11.5658
▁Lynch	-11.5661
▁nicknamed	-11.5663
▁graduated	-11.5663
▁List	-11.5666
▁expansion	-11.5666
▁gonna	-11.5666
▁banker	-11.5668
▁Tha	-11.5669
▁weigh	-11.5671
▁Bangkok	-11.5677
▁Harvey	-11.5677
▁erect	-11.568
▁Bible	-11.568
▁Share	-11.568
▁(4	-11.5681
▁suggestions	-11.5683
going	-11.5683
▁Taiwan	-11.5689
▁objective	-11.5696
▁gentle	-11.5696
▁tougher	-11.5699
▁Samaritan	-11.57
▁worship	-11.57
▁bribe	-11.5701
▁reviewed	-11.5706
▁Given	-11.5709
▁handing	-11.5711
▁prototype	-11.5711
▁unpaid	-11.5714
▁Store	-11.5717
ucci	-11.5719
▁Card	-11.5723
▁verbal	-11.5723
bol	-11.5728
▁princess	-11.5729
▁Bali	-11.5734
▁Sebastian	-11.5734
▁axe	-11.5736
▁deeper	-11.5738
from	-11.574
▁Paulo	-11.5742
▁depriv	-11.5745
▁distributed	-11.5746
▁northeast	-11.5747
bag	-11.5748
▁requir	-11.5755
▁identification	-11.5757
▁Sometimes	-11.5758
▁Workers	-11.5759
erra	-11.5761
▁Fish	-11.5762
uce	-11.5762
▁Jam	-11.5763
▁None	-11.5767
▁commuter	-11.5768
▁Felipe	-11.5768
▁thumb	-11.5768
▁DVD	-11.5768
▁Aviation	-11.5768
▁stroll	-11.577
▁richest	-11.5774
▁soap	-11.5776
▁allowance	-11.5776
▁(7	-11.5778
▁array	-11.578
▁bay	-11.578
▁hackers	-11.5786
▁vary	-11.5787
▁cemetery	-11.5791
▁contaminated	-11.5791
▁correspondent	-11.5791
▁wives	-11.5791
▁gaining	-11.5793
▁Hou	-11.5796
▁Charge	-11.5797
▁FAA	-11.5797
▁Lawson	-11.58
goers	-11.58
▁Corporation	-11.5802
▁Zuckerberg	-11.5802
▁smash	-11.5807
▁recount	-11.5808
chu	-11.5808
▁Woman	-11.5809
▁Tommy	-11.5809
▁1930	-11.581
▁Taking	-11.581
▁Ashton	-11.5812
▁whenever	-11.5813
▁1976	-11.5814
▁renewed	-11.5815
▁notified	-11.5818
▁successive	-11.582
:00	-11.5822
▁countless	-11.5823
▁revelation	-11.5824
▁prosthetic	-11.5825
▁alliance	-11.5825
▁superstar	-11.5827
boo	-11.5828
▁Megan	-11.5831
▁Bran	-11.5832
▁traditionally	-11.5835
▁190	-11.5836
▁Portsmouth	-11.5837
▁Shop	-11.5838
tier	-11.5839
covered	-11.5839
aria	-11.5843
ril	-11.5843
GB	-11.5844
▁Fan	-11.5845
▁km	-11.5846
▁lifting	-11.5848
▁Valentine	-11.5848
▁crocodile	-11.5848
▁pedestrian	-11.5848
▁Barca	-11.5848
▁campaigning	-11.5848
▁combine	-11.585
Har	-11.5857
▁updates	-11.5857
▁empire	-11.5859
▁medium	-11.586
▁Further	-11.586
▁Clinic	-11.586
▁slope	-11.5862
▁catching	-11.5863
isi	-11.5866
▁2018	-11.5867
husband	-11.5868
▁poet	-11.587
beat	-11.5873
▁maker	-11.5876
▁owe	-11.5882
▁terrace	-11.5883
▁pursuing	-11.5894
▁regulate	-11.5894
▁Side	-11.5895
▁bearing	-11.5898
oun	-11.5899
▁hid	-11.5904
▁myth	-11.5905
Star	-11.5906
▁cleric	-11.5907
▁permanently	-11.5907
▁Nan	-11.5913
▁reacted	-11.5913
▁consistently	-11.5916
Russian	-11.5916
▁balcony	-11.5917
▁remark	-11.5919
▁1983	-11.5929
▁Chambers	-11.5929
▁Box	-11.5933
▁tick	-11.5933
Ka	-11.5936
▁quo	-11.5936
▁Boxing	-11.5938
Everybody	-11.5941
chel	-11.5944
▁deceased	-11.5952
▁tsunami	-11.5952
▁Pearson	-11.5952
▁PSG	-11.5952
▁180	-11.5956
Who	-11.5961
▁condolences	-11.5963
▁mandatory	-11.5963
▁Jenny	-11.5966
▁skies	-11.5966
▁suitable	-11.5968
▁tortured	-11.5969
Wi	-11.5969
▁relate	-11.5974
▁Antarctic	-11.5975
▁Amber	-11.5977
▁deployment	-11.5979
▁Ibrahim	-11.5987
mba	-11.5987
▁heroes	-11.5987
▁£100,000	-11.5989
▁ruined	-11.599
▁modelling	-11.5997
▁Medicine	-11.5998
▁dignity	-11.5998
court	-11.5999
▁Environment	-11.6006
▁Raheem	-11.601
▁Yahoo	-11.601
▁fingerprint	-11.601
▁interaction	-11.602
trust	-11.602
▁Assembly	-11.6022
▁cottage	-11.6022
▁supervisor	-11.6022
▁Alliance	-11.6022
▁Studies	-11.6022
▁inspectors	-11.6022
▁drowned	-11.6023
▁(£1	-11.6024
▁Organ	-11.6025
▁AIDS	-11.6027
▁sweeping	-11.6027
self	-11.6027
▁89	-11.6029
▁specially	-11.603
85	-11.6031
agged	-11.6032
▁puppy	-11.6033
▁ultra	-11.6033
▁Travis	-11.6035
▁proving	-11.604
▁corrupt	-11.6043
enter	-11.6045
▁spectators	-11.6046
▁Nov	-11.6046
▁Pete	-11.6048
▁accountable	-11.6051
▁Try	-11.6051
▁technologies	-11.6057
▁inquiries	-11.6057
aunt	-11.6057
▁Scar	-11.6057
▁Uganda	-11.6057
▁guilt	-11.6067
solve	-11.6067
▁Holl	-11.6068
▁Berkshire	-11.6068
▁unbelievable	-11.6068
▁Bahrain	-11.6068
▁Natural	-11.6068
▁straw	-11.6069
▁Zara	-11.6069
▁Boyle	-11.6071
▁Reserve	-11.6071
);	-11.6072
▁Scout	-11.6073
▁Sue	-11.6076
▁Mile	-11.6077
▁Ethiopia	-11.608
▁overwhelmed	-11.608
▁wardrobe	-11.608
▁anticipated	-11.6082
▁reactor	-11.6082
▁curl	-11.6082
▁dear	-11.6087
▁Brent	-11.6087
▁Kla	-11.609
lick	-11.6093
▁Janet	-11.6097
speed	-11.6098
▁Allardyce	-11.6104
▁Cambodia	-11.6104
▁makeshift	-11.6104
vig	-11.6112
▁Doug	-11.6112
▁bend	-11.6112
▁detainees	-11.6115
▁dinosaur	-11.6115
▁reassure	-11.6115
▁thieves	-11.6115
▁rubble	-11.6116
▁Tax	-11.612
▁hunger	-11.6121
▁Nicola	-11.6124
▁Kor	-11.6129
PO	-11.613
▁pirates	-11.613
▁Indonesian	-11.6132
▁1978	-11.6139
▁Blood	-11.6139
▁Salmond	-11.614
▁interact	-11.614
▁shade	-11.6142
▁nap	-11.6143
▁expanding	-11.6144
▁torch	-11.6146
▁possess	-11.6148
▁35-	-11.6149
▁acquitted	-11.6151
▁1969	-11.6151
▁Dozens	-11.6151
▁Lil	-11.6151
▁Pedro	-11.6151
▁Madison	-11.6151
figure	-11.616
▁hyper	-11.6161
▁Jesse	-11.6167
▁quarterback	-11.6167
kan	-11.6167
▁fancy	-11.6169
▁130	-11.6171
▁feat	-11.6172
▁Weiner	-11.6175
▁Schu	-11.6178
▁Visit	-11.618
▁reminded	-11.6182
▁Lily	-11.6186
▁optimistic	-11.6186
▁convoy	-11.6186
▁bulk	-11.6187
▁Alba	-11.6187
▁persuade	-11.6189
▁dishes	-11.6196
▁Consumer	-11.6198
stricken	-11.6199
▁deploy	-11.6199
lev	-11.6203
backed	-11.6209
▁Cameroon	-11.621
▁interrupt	-11.621
▁Churchill	-11.6213
▁thankful	-11.6216
flight	-11.6219
▁accompany	-11.6222
▁Aleppo	-11.6222
▁Gregory	-11.6223
▁dawn	-11.6223
Having	-11.6234
▁allege	-11.6234
▁Cowell	-11.6236
▁GB	-11.6244
▁Etihad	-11.6246
hack	-11.6248
▁Clare	-11.6248
▁92	-11.625
▁Mia	-11.6255
▁echo	-11.6256
▁Communist	-11.6258
▁drift	-11.6258
▁eco	-11.6265
▁fond	-11.6266
▁farmer	-11.6267
▁nursery	-11.6268
▁swap	-11.627
▁mutual	-11.627
▁Curtis	-11.627
gne	-11.6272
▁fractured	-11.6276
▁Order	-11.6277
▁broader	-11.6277
▁Sheikh	-11.6282
▁Cheshire	-11.6283
▁*	-11.6283
▁Metro	-11.6284
▁lighting	-11.6284
organ	-11.6285
wind	-11.6287
▁Official	-11.6292
▁Eden	-11.6294
▁Map	-11.6296
▁tuck	-11.6298
▁Elvis	-11.6299
five	-11.6301
CH	-11.6304
▁Madonna	-11.6306
▁administrative	-11.6306
▁plague	-11.6306
▁quarantine	-11.6306
▁handbag	-11.6308
▁buyer	-11.6308
▁Rai	-11.6309
▁Early	-11.631
▁diverse	-11.6312
rob	-11.6314
▁Romanian	-11.6316
▁Amendment	-11.6318
▁jealous	-11.6318
▁lucrative	-11.6318
▁Quinn	-11.6319
▁uncertainty	-11.632
rose	-11.6322
▁brace	-11.6324
▁invade	-11.6329
▁throne	-11.633
▁yield	-11.633
▁Concern	-11.633
▁Flor	-11.6331
arried	-11.6336
▁matched	-11.6337
▁providers	-11.6337
▁mounted	-11.6338
▁Sou	-11.6338
▁invested	-11.634
▁Karzai	-11.6342
▁absent	-11.6342
▁Novak	-11.6343
▁junk	-11.6343
big	-11.6343
▁suspend	-11.6347
▁thorough	-11.6352
▁feather	-11.6355
▁diver	-11.6364
▁sounded	-11.6366
▁Rihanna	-11.6366
▁counterparts	-11.6366
▁Steel	-11.6366
▁solo	-11.6368
▁999	-11.6373
▁educational	-11.6374
▁trim	-11.6375
lack	-11.6376
gna	-11.6376
▁angel	-11.6376
▁invite	-11.6376
uel	-11.6377
▁plummet	-11.6378
370	-11.6379
▁Raymond	-11.6379
▁observe	-11.638
▁gradually	-11.6382
▁Nepal	-11.6391
▁amongst	-11.6392
▁stack	-11.6393
▁£10,000	-11.6393
▁1940	-11.6398
▁uncertain	-11.6402
▁Immigration	-11.6402
▁particles	-11.6403
▁Mission	-11.6403
▁brew	-11.6403
faced	-11.6407
usion	-11.6409
▁Bournemouth	-11.6415
▁harvest	-11.6415
▁Swift	-11.6415
▁cardiac	-11.6415
▁Seoul	-11.6415
▁naval	-11.6416
▁sofa	-11.6425
▁Terri	-11.6425
▁pond	-11.6426
▁Richmond	-11.6427
due	-11.6427
▁Couple	-11.6428
▁Main	-11.6429
▁Crist	-11.643
▁Gibson	-11.6439
▁robust	-11.6439
▁deported	-11.6439
▁GPS	-11.644
▁suck	-11.644
▁Watt	-11.6443
▁lone	-11.6444
▁labelled	-11.6445
▁fox	-11.6448
▁Cass	-11.6451
▁shuttle	-11.6454
▁dip	-11.6455
▁Levi	-11.6456
▁2020	-11.6457
brand	-11.646
▁Dav	-11.6461
LICK	-11.6463
▁Derek	-11.6464
▁rampage	-11.6471
▁portrayed	-11.6472
▁distraught	-11.6475
▁eurozone	-11.6475
▁luggage	-11.6475
▁transgender	-11.6475
▁lottery	-11.6476
▁Getting	-11.648
CO	-11.6481
▁Cut	-11.6482
▁Heath	-11.6482
▁litre	-11.6483
▁refund	-11.6485
▁Fletcher	-11.6488
▁Magazine	-11.6488
▁fundraiser	-11.6488
▁worries	-11.6488
▁Plymouth	-11.6488
▁cockpit	-11.6488
▁Strauss	-11.6488
▁Sharp	-11.6491
▁flies	-11.6491
▁eruption	-11.6491
▁Newtown	-11.6493
▁racially	-11.6494
whi	-11.6496
▁stating	-11.6498
▁conventional	-11.6498
▁actively	-11.6499
▁plead	-11.6499
call	-11.65
▁Mediterranean	-11.65
▁hiring	-11.6502
running	-11.6502
▁Kon	-11.6503
where	-11.6509
▁MA	-11.6511
▁6,000	-11.6512
▁Falkland	-11.6512
▁Medicare	-11.6512
▁flower	-11.6512
▁neighbourhood	-11.6513
▁stark	-11.6514
▁defined	-11.6523
▁Deborah	-11.6524
▁identical	-11.6524
▁Drew	-11.6526
▁rice	-11.6528
▁cough	-11.6528
ME	-11.653
▁Bron	-11.6535
▁Hero	-11.6536
▁victories	-11.6537
▁dirt	-11.6538
▁salad	-11.6539
▁Gran	-11.6542
▁Kru	-11.6544
▁Sandra	-11.6544
▁freak	-11.6549
▁Worth	-11.6549
Cha	-11.6552
▁Image	-11.6553
▁Break	-11.6555
▁jam	-11.6556
▁Amsterdam	-11.6561
▁appalling	-11.6561
▁wicket	-11.6561
▁collar	-11.6561
▁motorway	-11.6564
fighting	-11.6565
chin	-11.6565
▁nickname	-11.6565
▁bout	-11.6566
▁authorized	-11.6567
smith	-11.6568
▁Photographer	-11.6568
▁Carlo	-11.6569
▁bailout	-11.657
pressed	-11.657
▁Journalist	-11.6572
may	-11.6572
▁Fur	-11.6574
▁occasionally	-11.6575
▁manufacture	-11.6578
harm	-11.6578
▁accessible	-11.6579
▁Pitt	-11.6581
▁Brandon	-11.6583
▁Terror	-11.6586
▁1972	-11.6586
▁Miranda	-11.6586
what	-11.6589
▁sufferers	-11.6592
▁sustainable	-11.6593
DS	-11.6593
▁assisted	-11.6594
control	-11.6595
General	-11.6596
▁Zoe	-11.6596
▁Put	-11.6597
▁Constable	-11.6598
zzi	-11.66
▁Carney	-11.6604
shore	-11.6605
▁Parkinson	-11.6611
▁Meyer	-11.6613
▁crowded	-11.6619
▁Leo	-11.662
▁Youth	-11.6623
▁Eventually	-11.6623
▁Myanmar	-11.6623
▁Sutton	-11.6623
▁spinal	-11.6624
etto	-11.6624
▁flick	-11.6625
▁illnesses	-11.6626
▁expose	-11.6628
▁northwest	-11.663
▁Dhabi	-11.6636
▁emphasis	-11.6636
▁invitation	-11.6636
▁implications	-11.6636
▁grim	-11.6636
▁6-2	-11.6637
▁140	-11.6637
elo	-11.6639
**	-11.6643
▁quietly	-11.6647
▁Archbishop	-11.6648
▁Bergdahl	-11.6648
▁replacing	-11.6648
▁Christina	-11.6649
▁Shane	-11.665
combe	-11.665
dell	-11.6656
▁Nebraska	-11.666
▁transaction	-11.6661
▁purple	-11.6661
▁memoir	-11.6663
▁Clarkson	-11.6666
▁rank	-11.667
▁niece	-11.6673
▁swam	-11.6673
bia	-11.6673
▁cooperate	-11.6674
▁empower	-11.6682
▁Dee	-11.6683
▁educated	-11.6684
▁Diane	-11.6684
▁Convention	-11.6685
▁PGA	-11.6685
▁stint	-11.6686
▁lounge	-11.6686
▁Trump	-11.6687
paid	-11.6689
▁archive	-11.669
mie	-11.6692
▁visitor	-11.6694
▁Assange	-11.6698
▁Merseyside	-11.6698
▁knives	-11.6698
▁Bentley	-11.6698
▁assigned	-11.6698
iq	-11.6698
▁robbed	-11.6698
▁distinctive	-11.6701
▁surfaced	-11.6701
▁Eu	-11.6708
moral	-11.6708
▁upstairs	-11.671
▁Arrest	-11.6712
▁prediction	-11.6717
▁construct	-11.6717
▁pale	-11.6721
▁sympathy	-11.6723
▁speculate	-11.6723
▁ugly	-11.6723
ibility	-11.6724
▁Gross	-11.6725
▁200,000	-11.6726
▁repay	-11.6729
▁Master	-11.673
▁disclosed	-11.6731
▁Ambassador	-11.6735
▁Gonzalez	-11.6735
▁unbeaten	-11.6735
▁mammal	-11.6735
▁Budget	-11.6736
hearted	-11.6736
▁Lowe	-11.6736
▁Cheryl	-11.6736
▁barred	-11.6746
lapse	-11.6747
▁Sao	-11.6752
▁publishing	-11.6753
▁reviewing	-11.6757
▁Fellow	-11.676
▁buck	-11.6763
▁depressed	-11.6764
▁Donna	-11.6764
▁lawn	-11.6765
▁Ship	-11.6766
▁Romania	-11.6767
▁36-	-11.6773
▁Dawson	-11.6773
▁obstacle	-11.6773
▁thief	-11.6773
▁Gloucestershire	-11.6773
funded	-11.6775
▁Jorge	-11.6775
▁gunfire	-11.6777
▁Evan	-11.678
▁rabbit	-11.6783
▁temper	-11.6784
▁4-0	-11.6786
▁Gala	-11.6789
▁Lor	-11.6789
▁workout	-11.6794
girlfriend	-11.6796
ulous	-11.6796
▁Rugby	-11.6798
▁okay	-11.6798
▁pipeline	-11.68
▁Ground	-11.6805
▁2017	-11.6808
▁Lindsay	-11.6811
▁Smart	-11.6812
▁representation	-11.6814
▁Singer	-11.6817
▁Quin	-11.6817
▁exhaust	-11.6818
▁Meh	-11.6821
▁controlling	-11.6822
▁Cathedral	-11.6824
▁accommodate	-11.6824
▁Chloe	-11.6824
etti	-11.6824
▁boycott	-11.6825
eye	-11.6826
cross	-11.6827
▁Cable	-11.6831
▁Hale	-11.6833
▁assert	-11.6833
▁Elementary	-11.6836
▁Nixon	-11.6836
▁spouse	-11.6836
▁withdrawn	-11.6837
▁Tel	-11.684
▁(3	-11.6842
sexual	-11.6843
▁bidding	-11.6844
special	-11.6848
▁Holiday	-11.6849
▁protocol	-11.6849
▁incentive	-11.6849
▁Joint	-11.6849
▁endorse	-11.685
▁Vogue	-11.685
▁habitat	-11.6857
▁harmful	-11.686
▁surgeries	-11.6863
▁derby	-11.6865
▁Money	-11.6866
▁Temple	-11.6874
▁Ahmadinejad	-11.6874
▁corpse	-11.6874
▁@@	-11.6874
▁Monica	-11.6875
▁Dad	-11.6877
-10	-11.6877
▁narrowly	-11.6879
▁$100,000	-11.6882
▁outraged	-11.6885
course	-11.6886
▁Mohammad	-11.6887
▁Olivia	-11.6887
▁surgical	-11.6887
▁Raf	-11.6888
▁Heat	-11.6892
▁Stein	-11.6892
▁salon	-11.6896
▁absorb	-11.69
father	-11.6902
▁homeland	-11.6903
▁weakness	-11.6903
▁©	-11.6904
▁Chester	-11.6907
MS	-11.691
▁McConnell	-11.6912
▁sank	-11.6914
▁diversity	-11.6915
TH	-11.6916
Qaeda	-11.6923
▁WA	-11.6925
▁Families	-11.6925
▁flagship	-11.6928
▁Johan	-11.693
source	-11.6931
▁Hood	-11.6933
▁traumatic	-11.6935
▁independently	-11.6937
▁Frenchman	-11.6937
▁capabilities	-11.6938
▁Primary	-11.6938
▁1977	-11.694
▁disclose	-11.6944
▁blocking	-11.6944
▁wise	-11.6945
▁Ava	-11.6947
anda	-11.6948
▁jewel	-11.6949
▁pressing	-11.6951
▁Bundesliga	-11.6951
▁mechanism	-11.6951
▁gaming	-11.6951
▁embarrassment	-11.6951
hee	-11.6952
▁shall	-11.6956
▁stuffed	-11.6963
▁happier	-11.6964
▁compiled	-11.6964
▁cater	-11.6964
▁index	-11.6968
▁pageant	-11.6971
▁reply	-11.6971
▁broker	-11.6973
▁addressing	-11.6976
▁bruises	-11.6976
▁hashtag	-11.6976
▁Shadow	-11.6976
▁chunk	-11.6977
▁flesh	-11.6977
▁Oh	-11.6982
▁helpful	-11.6984
this	-11.6985
▁pie	-11.6987
▁justify	-11.699
▁Kan	-11.6993
▁identifying	-11.6995
▁Mirror	-11.7002
▁awkward	-11.7002
▁Idaho	-11.7002
▁obstruct	-11.7003
nock	-11.7004
▁documented	-11.7004
▁consumed	-11.7006
▁sooner	-11.7014
▁SEAL	-11.7015
▁Toyota	-11.7015
▁Puerto	-11.7015
▁Gur	-11.7015
▁approaches	-11.7017
▁tense	-11.7018
▁Review	-11.7018
▁poorly	-11.7018
▁Hilton	-11.7019
▁amendment	-11.702
▁cheating	-11.7022
▁Alexandra	-11.7028
▁Policy	-11.7028
▁instinct	-11.7028
▁veto	-11.7028
▁Martha	-11.703
▁40,000	-11.703
▁1968	-11.703
handed	-11.7033
▁Between	-11.7041
▁Dublin	-11.7041
▁womb	-11.7041
▁flank	-11.7041
best	-11.7043
▁93	-11.7045
▁reflection	-11.7048
▁pier	-11.7048
▁barrister	-11.7054
▁participating	-11.7054
▁98	-11.7056
OM	-11.7061
▁spared	-11.7064
▁genital	-11.7067
▁Fraser	-11.7067
▁Estate	-11.7068
▁Nichols	-11.7069
▁Rum	-11.7069
▁cattle	-11.707
▁Diet	-11.7075
▁attach	-11.7076
grown	-11.7079
▁Century	-11.708
▁joking	-11.708
▁routinely	-11.7085
▁Burton	-11.7086
▁Pont	-11.7089
▁Doctor	-11.7091
correct	-11.7091
▁outskirts	-11.7093
▁battered	-11.7093
▁iOS	-11.7093
▁violate	-11.7098
▁counties	-11.7101
security	-11.7104
▁Deep	-11.7105
▁Hassan	-11.7109
▁dorm	-11.7109
▁assassin	-11.7115
▁Mumbai	-11.7119
▁Pittsburgh	-11.7119
▁blunt	-11.7119
▁Ivory	-11.7119
▁USS	-11.7121
▁Brin	-11.7122
▁$15	-11.7127
▁Wool	-11.7129
Your	-11.7129
▁boasted	-11.713
▁golfer	-11.713
▁Rosa	-11.7131
Islam	-11.7132
▁Celebrity	-11.7132
▁credibility	-11.7132
▁identities	-11.7132
▁1963	-11.7132
▁profound	-11.7133
MC	-11.7136
▁Protesters	-11.7138
▁Late	-11.7139
▁Commander	-11.714
▁Superintendent	-11.7145
▁economist	-11.7145
▁elevator	-11.7145
▁flavour	-11.7145
▁1964	-11.7145
▁Actress	-11.7145
▁colourful	-11.7146
▁Geneva	-11.7147
66	-11.7148
▁installation	-11.7154
▁implemented	-11.7156
significant	-11.7156
▁Never	-11.7157
▁Sharapova	-11.7158
▁segment	-11.7158
tour	-11.7159
▁charter	-11.716
story	-11.7165
ml	-11.7169
▁dynamic	-11.7171
▁accomplice	-11.7171
▁Guide	-11.7172
▁filmmaker	-11.7176
▁stray	-11.7177
▁backyard	-11.7179
▁tackling	-11.7184
▁saddened	-11.7184
▁prescribed	-11.7185
▁salmon	-11.7185
▁altitude	-11.7185
▁Murder	-11.7186
▁poly	-11.7195
▁Ancelotti	-11.7197
▁capsule	-11.7197
▁Serena	-11.7198
▁disgusting	-11.7205
▁Marcel	-11.7206
▁shattered	-11.7208
▁Aberdeen	-11.721
▁altogether	-11.721
▁legislative	-11.721
▁relegation	-11.721
▁urine	-11.721
▁TO	-11.7213
▁sticking	-11.7215
68	-11.7215
▁dismissal	-11.7218
▁occupation	-11.7224
▁smuggling	-11.7224
▁Madeleine	-11.7224
▁contradict	-11.7224
▁Should	-11.7224
▁consciousness	-11.7225
▁exempt	-11.7226
▁Kelley	-11.7226
▁Yaya	-11.7226
▁scour	-11.7228
▁shootout	-11.7232
tention	-11.7236
▁Borussia	-11.7237
▁Griffin	-11.7237
▁Twenty	-11.7237
▁recruitment	-11.7242
▁Greene	-11.7248
▁streak	-11.725
▁guided	-11.7251
▁finest	-11.7253
▁Set	-11.7259
▁Clear	-11.726
▁Friend	-11.726
▁critically	-11.7261
▁crisp	-11.7263
▁transparent	-11.7263
piration	-11.7265
▁profession	-11.7267
▁Butler	-11.7267
▁sniper	-11.7272
▁coincide	-11.7276
▁Ambulance	-11.7276
▁definition	-11.7276
▁securing	-11.7276
▁Maz	-11.7287
▁launches	-11.7289
▁batteries	-11.729
▁injuring	-11.729
▁Arnold	-11.729
▁wildfire	-11.7291
▁Kenny	-11.7293
▁Lyon	-11.7294
▁Cul	-11.7295
▁Soon	-11.7297
▁Petr	-11.7299
▁Boyd	-11.73
century	-11.7301
Over	-11.7304
▁Falcon	-11.7304
▁Brooke	-11.7307
▁Cab	-11.7309
▁crashes	-11.731
▁memorable	-11.7316
▁Owner	-11.7316
▁Brewer	-11.7318
▁sexy	-11.7318
▁Ry	-11.732
chief	-11.7328
Since	-11.7328
▁ESPN	-11.7329
OT	-11.7336
▁sweep	-11.7337
▁owed	-11.7342
▁austerity	-11.7343
▁Meet	-11.735
â	-11.7355
▁91	-11.7355
▁fascinating	-11.7356
▁imminent	-11.7356
▁tycoon	-11.7356
▁1974	-11.7356
▁eldest	-11.7356
▁tyre	-11.7357
▁Third	-11.7357
▁Mini	-11.7361
▁$50	-11.7365
▁backpack	-11.7366
▁stylish	-11.7369
▁Superior	-11.7369
▁Blasio	-11.7369
▁financially	-11.7375
▁96	-11.7378
which	-11.7384
▁Daley	-11.7388
▁examiner	-11.7393
▁concerning	-11.7393
▁hatch	-11.7396
▁fantasy	-11.7396
▁Creek	-11.7398
▁disgrace	-11.7402
▁locate	-11.7402
▁skiing	-11.7406
Donnell	-11.7406
▁skate	-11.741
▁polling	-11.7414
▁corn	-11.7418
▁wished	-11.7422
▁Province	-11.7423
▁frightened	-11.7423
▁warehouse	-11.7423
▁Medal	-11.7423
▁suitcase	-11.7424
worthy	-11.7424
▁Champion	-11.7425
▁accidental	-11.7433
▁possessing	-11.7433
▁firmly	-11.7434
▁Gingrich	-11.7436
▁Ozil	-11.7437
▁confirmation	-11.7437
▁Drive	-11.7442
▁lighter	-11.7443
▁3-2	-11.7444
▁Living	-11.7449
▁delicate	-11.745
▁password	-11.7451
▁rated	-11.7452
▁discovering	-11.7452
▁1975	-11.7453
▁wireless	-11.7454
▁massage	-11.7454
▁eliminate	-11.7456
▁Wind	-11.7456
▁Step	-11.7456
▁southwest	-11.7458
▁Pietersen	-11.7463
▁Rigby	-11.7463
▁Floyd	-11.7463
▁instructed	-11.7464
grove	-11.7467
▁undergone	-11.7468
▁pint	-11.7468
▁Logan	-11.7469
Those	-11.7476
▁Montgomery	-11.7477
▁Rosen	-11.7477
▁mag	-11.7478
▁Oakland	-11.7479
▁Case	-11.7479
mbi	-11.7481
▁Bab	-11.7484
jah	-11.7486
▁Cricket	-11.749
▁Rubio	-11.749
▁disclosure	-11.749
▁participation	-11.749
▁telescope	-11.749
▁Javier	-11.749
▁Shield	-11.749
▁mainland	-11.7491
▁tee	-11.7492
▁Blind	-11.7492
▁interrogation	-11.7494
▁Riley	-11.7496
98	-11.7498
▁oust	-11.7502
▁embryo	-11.7504
▁Survey	-11.7504
▁Forbes	-11.7505
▁ousted	-11.7508
▁wallet	-11.751
▁deleted	-11.7514
▁rapist	-11.7515
▁processes	-11.7517
cum	-11.7517
▁Firefighters	-11.7518
▁expedition	-11.7518
▁fragment	-11.7518
▁disguise	-11.7518
▁mining	-11.752
▁vomiting	-11.7521
make	-11.7524
▁bonuses	-11.7525
▁Panama	-11.7526
:45	-11.753
▁Arabic	-11.753
▁Together	-11.7531
▁frustrating	-11.7531
▁external	-11.7531
▁Study	-11.7533
▁merit	-11.7534
▁BT	-11.7536
▁exchanged	-11.754
▁acquired	-11.7542
▁deliberate	-11.7545
▁Adelaide	-11.7545
▁Wiltshire	-11.7545
▁trillion	-11.7545
▁ghost	-11.7547
▁360	-11.7548
▁Katy	-11.7554
▁evolved	-11.7554
▁$40	-11.7555
▁Supporters	-11.7555
▁cute	-11.7556
▁Debbie	-11.7558
ben	-11.7561
▁($1	-11.7562
eastern	-11.7562
▁scout	-11.7566
▁mug	-11.7571
▁universal	-11.7572
▁Herrera	-11.7572
▁Camilla	-11.7573
▁organic	-11.7573
▁Gan	-11.7575
▁packet	-11.7577
▁Chase	-11.7578
▁corridor	-11.7586
lane	-11.759
▁presentation	-11.7594
▁jumper	-11.7598
▁cement	-11.7601
step	-11.7604
name	-11.7605
▁$10,000	-11.761
floor	-11.7612
******	-11.7615
▁ashamed	-11.7615
▁£40	-11.7618
▁screamed	-11.762
▁sang	-11.7621
▁rack	-11.7622
▁Area	-11.7623
▁Enrique	-11.7627
▁Mackay	-11.7627
▁maintaining	-11.7631
▁Robson	-11.7637
▁Pain	-11.7637
▁applying	-11.7638
boyfriend	-11.7639
▁collaboration	-11.764
▁imprisoned	-11.764
▁misdemeanor	-11.764
▁immense	-11.764
▁innovative	-11.764
▁recruited	-11.7646
▁plotting	-11.765
▁Currently	-11.7651
John	-11.7654
▁Empire	-11.7654
▁WikiLeaks	-11.7654
▁perpetrator	-11.7654
▁superior	-11.7654
▁fortnight	-11.7655
▁Patient	-11.7655
▁evict	-11.7655
▁organizers	-11.7655
▁Shin	-11.7658
close	-11.7658
issa	-11.7658
▁shave	-11.7659
88	-11.7665
space	-11.7667
▁Mack	-11.7667
▁Beyonce	-11.7668
▁Elsewhere	-11.7668
▁distinguish	-11.7668
▁scramble	-11.7668
▁Ellie	-11.7672
▁awake	-11.7672
▁bias	-11.7676
▁exclusively	-11.768
▁transparency	-11.7682
▁Popular	-11.7682
found	-11.7682
▁healthier	-11.7689
▁Wade	-11.769
habit	-11.769
▁prevention	-11.7691
▁mounting	-11.7692
▁$30	-11.7692
▁annually	-11.7695
▁toast	-11.7697
▁breeding	-11.7699
product	-11.7699
▁expressing	-11.7701
▁Nothing	-11.7706
▁surprisingly	-11.7706
▁Check	-11.7706
▁Walmart	-11.7709
▁Corr	-11.7713
▁permitted	-11.7713
▁imagination	-11.7723
▁shook	-11.7723
▁Rupert	-11.7723
▁Suspect	-11.7723
▁frantic	-11.7724
▁160	-11.7726
▁6-1	-11.7726
NT	-11.7728
▁£25	-11.7729
▁Less	-11.773
▁Bryant	-11.7733
▁introducing	-11.7737
▁migration	-11.7737
▁demolish	-11.7737
▁Wheel	-11.7737
▁recreate	-11.7738
▁hurl	-11.7738
▁Would	-11.7742
▁Dominic	-11.7748
▁fist	-11.7748
▁participated	-11.7748
▁surveyed	-11.7749
Unfortunately	-11.775
▁brow	-11.775
▁Coventry	-11.7751
▁elegant	-11.7751
▁Junior	-11.7751
▁examining	-11.7751
▁altercation	-11.7751
▁heaven	-11.7751
▁shareholder	-11.7751
▁minimal	-11.7752
▁famed	-11.7752
▁editorial	-11.7754
▁listened	-11.7755
▁abnormal	-11.7765
▁nasty	-11.7765
SB	-11.7765
▁£200	-11.7766
▁Aviv	-11.777
▁laying	-11.7776
▁neutral	-11.7779
▁happily	-11.7779
▁spoil	-11.7779
▁Tribute	-11.7779
▁Culture	-11.7779
▁Giant	-11.7783
atu	-11.7786
▁rover	-11.7789
▁treaty	-11.7792
▁Holocaust	-11.7792
▁grieving	-11.7792
▁repeal	-11.7792
▁Giggs	-11.7793
Look	-11.7793
▁churches	-11.7794
▁tub	-11.7797
▁fracture	-11.7799
case	-11.78
pour	-11.7802
▁Shock	-11.7805
▁scattered	-11.7806
▁Isabel	-11.7807
▁wrongly	-11.7809
▁Brig	-11.781
terrorism	-11.7811
▁Rather	-11.7815
▁declaring	-11.782
▁diminish	-11.782
▁evident	-11.782
▁Lab	-11.7825
▁Joy	-11.7828
▁Sign	-11.7828
park	-11.7829
hom	-11.7829
▁betting	-11.7831
▁slid	-11.7831
▁courthouse	-11.7832
▁electro	-11.7834
▁televised	-11.7834
▁Beverly	-11.7834
code	-11.7836
mobile	-11.7843
▁drilling	-11.7844
▁Goodman	-11.7847
evil	-11.7848
▁bishop	-11.7848
▁Soldier	-11.7848
▁acute	-11.785
▁WHO	-11.785
▁Driver	-11.7852
▁Amir	-11.7854
Chris	-11.7862
▁Lebanese	-11.7862
▁trunk	-11.7862
▁safeguard	-11.7864
▁Asda	-11.7866
▁MS	-11.7872
▁ranch	-11.7873
▁Fab	-11.7874
▁crater	-11.7877
▁denial	-11.7878
▁Turn	-11.7879
▁Gang	-11.7882
▁foreigners	-11.7888
took	-11.7888
quality	-11.789
▁horizon	-11.789
▁mosquito	-11.789
▁orchestra	-11.7891
▁Lindsey	-11.7891
▁speeches	-11.7897
Kahn	-11.7902
▁drank	-11.7905
▁exploring	-11.7905
▁Tamerlan	-11.7905
▁bipartisan	-11.7905
▁Kercher	-11.7905
▁HMS	-11.7906
▁branches	-11.7908
▁rental	-11.7909
▁Sanders	-11.791
▁knocking	-11.7911
West	-11.7917
Sometimes	-11.7918
responsibilities	-11.7919
▁inevitable	-11.7919
▁receipt	-11.7919
▁Exeter	-11.7919
▁Lanza	-11.792
▁stain	-11.7921
▁playground	-11.7923
rog	-11.7926
▁Prof	-11.7928
▁£11	-11.7929
▁Hopkins	-11.7933
▁earliest	-11.7933
▁rhino	-11.7933
▁delegate	-11.7933
▁tighten	-11.7936
▁Sporting	-11.794
▁Eva	-11.7944
▁Resort	-11.7947
▁soared	-11.7948
▁demon	-11.7949
▁appoint	-11.7953
▁asthma	-11.7954
▁operational	-11.7961
▁arson	-11.7966
▁Marcus	-11.7969
▁Nature	-11.7969
▁vigilant	-11.797
▁Bang	-11.7971
▁crowned	-11.7972
Chamberlain	-11.7975
▁economies	-11.7975
▁persistent	-11.7976
▁reopen	-11.7979
▁Muhammad	-11.7989
▁Patricia	-11.7989
▁Similar	-11.7989
▁creep	-11.799
▁salaries	-11.799
fro	-11.799
▁Luiz	-11.7993
▁shaken	-11.7994
▁dial	-11.7994
▁scorer	-11.7997
▁plight	-11.8001
▁Hezbollah	-11.8004
▁1967	-11.8004
▁Hoffman	-11.8004
▁influenced	-11.8005
▁denounc	-11.8008
▁Yemeni	-11.8008
▁transit	-11.8008
▁supposedly	-11.8008
▁requirement	-11.8016
▁motorbike	-11.8018
▁skipper	-11.8021
▁wherever	-11.8022
▁transformation	-11.8023
▁Serbia	-11.8025
HO	-11.8025
▁Jade	-11.803
▁sword	-11.8033
▁Coach	-11.8037
▁neighbouring	-11.804
▁exile	-11.8044
▁Fernandez	-11.8047
▁unleash	-11.8047
▁lining	-11.8052
▁grill	-11.8055
▁bravery	-11.8056
▁Tele	-11.8059
▁archaeologist	-11.8061
▁violating	-11.8061
▁Santos	-11.8062
▁shine	-11.8063
filled	-11.8063
▁Cahill	-11.8064
▁Carson	-11.8064
oud	-11.8065
▁retro	-11.8065
▁emotionally	-11.8067
▁bolster	-11.8075
▁distant	-11.8075
▁Katrina	-11.8075
▁Hasan	-11.8075
▁Mum	-11.8076
▁Fry	-11.8079
▁Hoy	-11.8079
lessness	-11.8079
▁Newton	-11.8081
▁Cash	-11.8084
▁Tell	-11.8087
perfect	-11.8088
▁Frei	-11.8088
versus	-11.8089
▁brutally	-11.8089
▁Din	-11.809
fair	-11.8094
▁lamb	-11.8094
encies	-11.8095
▁Bour	-11.8095
ibly	-11.8096
-16	-11.8098
▁credible	-11.81
▁fraudulent	-11.8104
▁significance	-11.8104
▁rumors	-11.8105
▁roadside	-11.8105
▁Hagel	-11.8106
▁halfway	-11.8107
▁brawl	-11.8119
▁Porter	-11.812
▁Gerard	-11.8121
▁fiction	-11.8122
▁praying	-11.8129
▁gunned	-11.8131
official	-11.8132
▁Ralph	-11.8133
▁Winfrey	-11.8133
▁jungle	-11.8133
▁1971	-11.8133
▁amazed	-11.8133
▁Robben	-11.8133
▁trek	-11.8134
▁Middlesbrough	-11.8147
▁Paralympic	-11.8147
▁slur	-11.8147
▁blaming	-11.8147
▁bankruptcy	-11.8147
AY	-11.8147
social	-11.8149
▁£500	-11.8151
▁Luther	-11.8154
▁justified	-11.8157
▁disgust	-11.8158
▁architecture	-11.8163
▁tonnes	-11.8163
▁Teacher	-11.8163
▁breached	-11.8163
▁marched	-11.817
▁healing	-11.8176
▁Circuit	-11.8176
▁Lieutenant	-11.8176
▁manifest	-11.8176
plus	-11.8177
▁Farrell	-11.8177
▁slashed	-11.8177
▁nanny	-11.8177
▁Tara	-11.8181
▁sake	-11.8182
▁netted	-11.8187
▁default	-11.819
▁mixture	-11.8191
God	-11.8195
loved	-11.8197
▁unity	-11.8198
▁villa	-11.8202
▁Rat	-11.8203
iki	-11.8204
▁Connor	-11.8204
▁recreation	-11.8205
▁Athens	-11.8205
▁Klein	-11.8206
serious	-11.8207
▁encountered	-11.8208
cula	-11.8213
▁surround	-11.8214
▁congratulate	-11.8215
▁driveway	-11.8216
▁Hertfordshire	-11.822
▁Memphis	-11.822
▁decisive	-11.822
▁evaluation	-11.822
▁shrink	-11.822
▁Alison	-11.8224
▁Environmental	-11.8225
▁persuaded	-11.8231
▁chilling	-11.8234
▁punching	-11.8234
keeping	-11.8234
▁Tragedy	-11.8234
▁suppress	-11.8234
▁takeaway	-11.8235
lux	-11.8238
pac	-11.8239
▁wiped	-11.8241
▁Liu	-11.8241
▁masked	-11.8244
▁Save	-11.8245
▁drown	-11.8247
bourne	-11.8249
▁sperm	-11.8249
▁Gul	-11.8249
▁Grammy	-11.825
▁Trayvon	-11.8263
▁captivity	-11.8263
▁thrash	-11.8263
▁1973	-11.8263
▁backdrop	-11.8263
▁thug	-11.8263
Where	-11.8264
▁Hann	-11.8264
▁Lincolnshire	-11.8264
cost	-11.8265
▁Yang	-11.8268
Mart	-11.827
building	-11.8273
▁fiancee	-11.8274
▁Canterbury	-11.8278
shoot	-11.828
▁invented	-11.828
▁Gru	-11.8281
▁exotic	-11.8282
▁attracting	-11.8282
▁Cheney	-11.8284
▁destroying	-11.8287
▁Clement	-11.829
▁payout	-11.8292
▁declaration	-11.8293
▁retiring	-11.8293
▁Xbox	-11.8294
hear	-11.8295
▁renew	-11.8296
▁Gate	-11.8299
dded	-11.8305
▁render	-11.8305
▁cooked	-11.8305
▁sparking	-11.8305
▁unfold	-11.8306
▁supplied	-11.8307
▁voluntary	-11.8307
▁holy	-11.8308
▁progressive	-11.8308
▁Historic	-11.8308
▁Wol	-11.8309
▁Vince	-11.8311
▁fiance	-11.8312
▁Relations	-11.8313
▁claw	-11.8316
▁Nike	-11.8317
▁McL	-11.8321
▁Sainsbury	-11.8322
▁curious	-11.8324
▁panda	-11.8329
▁kitten	-11.8333
check	-11.8335
▁Starr	-11.8336
▁Gaddafi	-11.8337
▁umbrella	-11.8337
▁paperwork	-11.834
▁mole	-11.8347
▁Wick	-11.8351
▁luxurious	-11.8351
▁hanged	-11.8352
▁lingerie	-11.8353
▁Branson	-11.8354
▁Shak	-11.8354
▁Shan	-11.8356
extremely	-11.8356
would	-11.8366
▁Pacquiao	-11.8366
▁sworn	-11.8366
▁pause	-11.8368
▁Joyce	-11.8368
*	-11.8368
Mon	-11.8369
▁Hit	-11.8372
▁£14	-11.8372
▁armour	-11.8373
▁Fal	-11.8377
▁drastic	-11.8381
▁grocery	-11.8381
▁physio	-11.8381
▁Barton	-11.8382
▁ensu	-11.8389
▁Noah	-11.8393
▁contributing	-11.8396
▁fatigue	-11.8396
▁opposing	-11.8396
▁slain	-11.8396
Day	-11.8397
▁milestone	-11.8397
▁heartbreaking	-11.8399
▁congratulat	-11.84
▁2-2	-11.8401
▁Common	-11.8405
▁Shaun	-11.8408
start	-11.8409
▁Discovery	-11.841
▁electoral	-11.841
▁grain	-11.8413
▁lease	-11.8414
ullah	-11.8416
slav	-11.8418
▁Stop	-11.8419
▁110	-11.8422
▁Steenkamp	-11.8425
▁Pie	-11.8426
▁busiest	-11.8427
▁Arias	-11.8427
▁Glo	-11.8429
▁Seth	-11.8434
▁Nolan	-11.8439
stream	-11.844
▁pavement	-11.8443
▁Crew	-11.845
▁Darling	-11.8451
▁embraced	-11.8452
▁Cumbria	-11.8455
▁Regiment	-11.8455
World	-11.8455
▁chew	-11.8458
▁Jolie	-11.8458
▁prohibited	-11.8462
▁rescuers	-11.8467
▁Mahmoud	-11.847
▁pundit	-11.847
▁flexible	-11.847
▁indicating	-11.847
▁Mosul	-11.8471
▁supervision	-11.8471
▁minorities	-11.8472
▁Fame	-11.8474
▁Legal	-11.8475
▁strangled	-11.8476
▁Strike	-11.8477
▁designated	-11.8482
▁Neighbor	-11.8485
▁narrative	-11.8485
▁enrich	-11.8488
▁1,200	-11.849
▁differ	-11.8493
ander	-11.8501
▁Sound	-11.8505
▁dependent	-11.8508
▁cracked	-11.8511
Hopefully	-11.8511
▁quest	-11.8512
▁respiratory	-11.8515
▁capability	-11.8516
▁wondering	-11.8517
storey	-11.8518
▁theories	-11.8519
▁Payne	-11.852
▁opera	-11.8522
▁Opera	-11.8524
▁wipe	-11.8526
▁unlock	-11.8527
▁bitten	-11.8528
▁slash	-11.853
▁Delaware	-11.853
▁Colonel	-11.853
▁conceive	-11.853
▁Cesc	-11.8531
▁scope	-11.8531
▁hatred	-11.8535
▁Vale	-11.8537
▁Fury	-11.8538
virus	-11.8542
▁Schumacher	-11.8545
▁Tribune	-11.8545
▁Could	-11.8546
▁Goals	-11.8547
▁Abdel	-11.8549
▁kissing	-11.8549
▁paw	-11.855
▁Barker	-11.8552
taker	-11.8553
▁prosecute	-11.8554
hawk	-11.8556
▁denying	-11.8557
▁bypass	-11.8557
▁Prosecution	-11.856
Maybe	-11.8564
77	-11.8565
▁Pole	-11.8566
▁Spot	-11.8567
ographer	-11.8573
▁swath	-11.8575
▁contemporary	-11.8575
▁catwalk	-11.8576
▁Highland	-11.8576
▁Dragon	-11.8579
▁firefighter	-11.8581
▁outrageous	-11.8582
▁angered	-11.8582
▁15,000	-11.8589
▁sin	-11.859
▁appetite	-11.859
▁delegation	-11.859
▁disastrous	-11.859
▁eyebrow	-11.859
▁equaliser	-11.8591
▁Florence	-11.8591
▁guaranteed	-11.8597
▁exhausted	-11.8597
▁Yan	-11.8599
▁BE	-11.8599
▁Holloway	-11.8605
▁taunt	-11.8606
▁partisan	-11.8612
▁constructed	-11.8612
▁reliable	-11.862
▁clerk	-11.862
▁dare	-11.8624
▁offshore	-11.8628
minded	-11.863
▁negotiating	-11.8635
▁bureau	-11.8636
▁ya	-11.8636
▁slap	-11.8636
▁endless	-11.8639
▁Marr	-11.8641
▁Kei	-11.8649
▁authentic	-11.8649
▁ancestor	-11.8651
▁IVF	-11.8651
▁Strong	-11.8651
▁Ibrahimovic	-11.8651
▁Face	-11.8655
Two	-11.8656
▁towel	-11.8659
ddling	-11.8661
▁$12	-11.8662
°	-11.8666
▁enthusiasm	-11.8666
▁separation	-11.8666
▁sunglasses	-11.8666
▁Daisy	-11.8666
▁Gea	-11.8667
▁1945	-11.867
▁collided	-11.8673
▁beast	-11.8676
Germain	-11.8677
▁Remy	-11.868
▁97	-11.868
▁censor	-11.8681
▁Kieran	-11.8681
super	-11.8682
▁McDonnell	-11.8682
▁Outside	-11.8685
▁Beau	-11.8686
▁Lip	-11.8686
▁proudly	-11.8687
▁scanner	-11.8687
▁Ltd	-11.8689
▁roar	-11.8689
▁Gamb	-11.8692
▁tally	-11.8693
▁fugitive	-11.8696
▁lyrics	-11.8696
▁Judy	-11.8704
▁mourn	-11.8705
▁Denise	-11.8708
▁8,000	-11.8708
▁Venezuelan	-11.8712
▁therapist	-11.8712
▁Previous	-11.8713
▁obsessed	-11.8716
▁dense	-11.8719
▁wondered	-11.8722
▁Buy	-11.8722
▁wounding	-11.8724
▁Correction	-11.8727
▁registration	-11.8727
▁landlord	-11.8727
▁Rwanda	-11.8727
▁Future	-11.8727
▁silk	-11.8728
▁dental	-11.8728
▁stretched	-11.874
▁Mugabe	-11.8742
▁refusal	-11.8742
▁steroid	-11.8742
▁footsteps	-11.8742
▁villagers	-11.8742
▁lodged	-11.8746
▁mineral	-11.8748
vice	-11.8754
▁mice	-11.8755
▁magnetic	-11.8756
▁elementary	-11.876
▁Agent	-11.876
black	-11.8762
▁sunny	-11.8763
****	-11.8763
▁Bright	-11.8771
96	-11.8772
▁Hussain	-11.8773
▁enclosure	-11.8773
▁magnificent	-11.8773
▁turkey	-11.8773
▁ambush	-11.8773
▁Against	-11.8775
▁stronghold	-11.8776
▁Hyde	-11.8778
▁traced	-11.8781
▁Hind	-11.8783
▁pouring	-11.8784
▁descended	-11.8785
▁measuring	-11.8788
▁Congressional	-11.8788
▁Upper	-11.8797
▁sadly	-11.8801
▁Monk	-11.8801
▁Starbucks	-11.8804
▁Tweet	-11.8804
▁Derbyshire	-11.8804
changing	-11.8806
▁Fiona	-11.8806
holder	-11.8813
▁lamp	-11.8813
▁fictional	-11.8814
▁scholar	-11.8818
▁Baroness	-11.8819
isha	-11.8822
▁mature	-11.8827
corn	-11.8832
▁£13	-11.8833
▁Baptist	-11.8834
▁convincing	-11.8834
▁landslide	-11.8834
▁podium	-11.8834
▁withdrew	-11.8834
▁Theatre	-11.8836
▁shipped	-11.8842
▁sadness	-11.8842
▁outspoken	-11.8842
▁heroic	-11.8843
▁Netflix	-11.885
▁Abraham	-11.885
▁applicant	-11.885
▁honeymoon	-11.885
▁relay	-11.8851
▁â	-11.8852
▁4-1	-11.8853
▁underage	-11.8855
Gu	-11.8857
pop	-11.8857
▁Heroes	-11.8858
▁provoked	-11.886
bird	-11.8861
▁harbour	-11.8865
▁brink	-11.8865
because	-11.8866
▁imagined	-11.8869
founded	-11.887
▁Haitian	-11.8874
▁provider	-11.8878
▁turtle	-11.8881
▁criteria	-11.8881
▁Becky	-11.8882
detached	-11.8882
Good	-11.8883
▁factories	-11.8886
▁hostile	-11.8886
trained	-11.8893
▁Describ	-11.8895
▁Dani	-11.8895
▁McCartney	-11.8897
▁cautious	-11.8897
▁continuous	-11.8897
▁leaf	-11.8897
bear	-11.89
▁canvas	-11.8903
center	-11.8903
▁Briton	-11.8903
▁Cow	-11.8904
▁Porto	-11.8904
▁Data	-11.8904
▁nearest	-11.8907
▁amend	-11.8911
▁Belfast	-11.8912
▁dominant	-11.8912
▁thrive	-11.8912
▁silly	-11.8912
▁Paterson	-11.8913
▁precise	-11.8914
▁Airbus	-11.8914
▁journalism	-11.8914
▁1966	-11.8915
marital	-11.8915
▁Skype	-11.8917
▁Stay	-11.8918
▁tolerance	-11.8918
▁Lohan	-11.8919
▁strap	-11.8927
▁Xinhua	-11.8928
▁floral	-11.8928
▁convey	-11.8928
sufficient	-11.8928
▁Chang	-11.8931
▁Rico	-11.8935
green	-11.8942
▁Kerr	-11.8943
▁maternity	-11.8943
=	-11.8943
▁awesome	-11.8943
▁Accused	-11.8944
▁salute	-11.8944
▁Beatles	-11.8945
▁crude	-11.8945
▁Tibetan	-11.8945
▁inventor	-11.8947
▁correctly	-11.8947
inho	-11.8955
▁reunion	-11.8959
consider	-11.896
▁Proud	-11.8969
▁turmoil	-11.8975
▁Vettel	-11.8975
▁Modern	-11.8975
▁waving	-11.8977
▁raft	-11.8981
▁elect	-11.8988
▁existed	-11.899
croft	-11.899
▁parachute	-11.899
▁shallow	-11.8991
square	-11.8993
rigg	-11.8995
▁Mitch	-11.8997
▁94	-11.9003
▁$500	-11.9006
▁Malcolm	-11.9006
▁comrade	-11.9006
▁Beauty	-11.9008
hunt	-11.9009
▁southeast	-11.9011
▁clue	-11.9011
▁till	-11.9011
▁mast	-11.9013
▁succeeded	-11.9014
▁battlefield	-11.9018
En	-11.902
▁Bianca	-11.9022
▁warrior	-11.9022
▁blessing	-11.9022
▁Ivanovic	-11.9022
▁naming	-11.9022
▁laboratory	-11.9022
▁Doyle	-11.9024
▁bury	-11.9027
▁hut	-11.9027
▁roam	-11.903
▁persist	-11.9031
89	-11.9033
▁Carrie	-11.9035
▁categories	-11.9038
▁compliment	-11.9038
▁tumble	-11.9038
▁Isaac	-11.9038
▁organize	-11.9038
▁priorities	-11.904
▁dual	-11.9048
▁norm	-11.9048
▁Story	-11.9052
▁Honduras	-11.9053
generation	-11.9054
▁mourners	-11.9058
▁900	-11.906
▁Mine	-11.9062
▁Lego	-11.9065
▁convenience	-11.9069
▁miscarriage	-11.9069
▁philosophy	-11.9069
▁blur	-11.9069
▁1920	-11.9072
▁Erin	-11.9076
▁showdown	-11.9076
appropriate	-11.9077
▁Teen	-11.9078
▁entertaining	-11.9082
▁technician	-11.9085
▁hamper	-11.9085
▁Reilly	-11.9085
ordination	-11.9086
@	-11.9086
▁preserved	-11.9086
Prince	-11.9086
▁Broadway	-11.9087
▁laughter	-11.9091
themed	-11.9097
▁sharply	-11.9098
▁deaf	-11.91
▁Shannon	-11.9101
▁bolt	-11.9102
▁inherited	-11.9102
Everything	-11.9102
▁Vermont	-11.9102
▁trooper	-11.9104
▁Vita	-11.911
▁crosses	-11.9111
zel	-11.9113
present	-11.9115
▁vacuum	-11.9117
▁policing	-11.9117
▁Gemma	-11.9117
▁ransom	-11.9117
▁Think	-11.9119
▁2,500	-11.9119
▁Pad	-11.9123
titude	-11.9125
viv	-11.9133
▁Jaguar	-11.9133
▁exploration	-11.9133
▁sequence	-11.9133
▁veil	-11.9133
▁CH	-11.9133
▁spur	-11.9134
▁heartbroken	-11.9134
▁clinch	-11.9135
▁swell	-11.9136
▁Muller	-11.9136
▁fury	-11.9138
▁Bai	-11.9144
▁dominate	-11.9144
▁chin	-11.9144
▁101	-11.9144
▁Bomb	-11.9147
▁Users	-11.9147
▁Morocco	-11.9149
▁intellectual	-11.9149
▁Hampton	-11.9149
▁tram	-11.9151
▁Salford	-11.9153
▁propose	-11.9161
Mill	-11.9164
▁setback	-11.9167
▁Flo	-11.9168
flu	-11.9169
▁magnitude	-11.9169
▁Pierre	-11.9171
▁halted	-11.9174
▁Randy	-11.9176
▁Everything	-11.918
▁CPR	-11.9181
▁mourning	-11.9183
▁accomplished	-11.9183
▁intact	-11.9185
witch	-11.9192
BO	-11.9193
▁Drogba	-11.9197
▁Guatemala	-11.9197
▁McCann	-11.9197
▁animated	-11.9197
▁wrestle	-11.9197
▁reopened	-11.92
▁calf	-11.9203
▁Poole	-11.9203
▁sickness	-11.9205
▁Milk	-11.9207
▁detector	-11.9211
▁Sinclair	-11.9213
▁Sollecito	-11.9213
▁steward	-11.9213
▁intruder	-11.9213
▁Wendy	-11.9213
▁Organisation	-11.9213
▁fanatic	-11.9214
▁Tracy	-11.9215
▁wig	-11.9215
▁digging	-11.9215
▁experimental	-11.9215
▁faint	-11.9215
▁congressman	-11.9216
▁consume	-11.9216
▁Westwood	-11.9217
▁HS	-11.9221
▁Georg	-11.9227
▁Burgess	-11.9229
▁martial	-11.9229
▁dedication	-11.9229
▁scoop	-11.9229
▁Siberia	-11.9229
▁Janeiro	-11.9229
bay	-11.9229
▁soaring	-11.923
▁Rivera	-11.9234
▁endure	-11.9236
▁Does	-11.9236
▁Austrian	-11.9241
▁distressed	-11.9244
▁Footage	-11.9245
▁Watkins	-11.9245
▁aggression	-11.9245
▁fertility	-11.9245
▁mobility	-11.9245
▁clot	-11.9247
▁Hardy	-11.9247
▁rode	-11.9252
▁darkness	-11.9256
ography	-11.9256
▁Pun	-11.9256
▁blank	-11.9257
▁Bony	-11.9257
scape	-11.9261
▁intensity	-11.9261
▁fog	-11.9262
▁Freeman	-11.9265
▁mastermind	-11.9266
▁hover	-11.9267
▁Safe	-11.9273
▁Aero	-11.9273
▁Shakespeare	-11.9277
▁plaintiff	-11.9277
▁sanctuary	-11.9277
▁sprawling	-11.9277
▁seize	-11.9278
defense	-11.9279
▁begged	-11.9279
▁expertise	-11.9282
▁Bil	-11.9283
▁institute	-11.9293
▁psychiatrist	-11.9293
▁tumor	-11.9293
▁Newark	-11.9293
Please	-11.9295
▁agony	-11.9298
▁judgement	-11.9301
▁echoed	-11.9303
▁gravity	-11.931
▁Gomez	-11.931
▁wool	-11.931
▁Malala	-11.9312
▁Pink	-11.9314
▁spying	-11.9317
▁Alberto	-11.9319
▁manual	-11.932
▁sleeve	-11.9326
length	-11.9327
▁Hansen	-11.9328
▁dispatcher	-11.9331
▁350	-11.9331
▁Classic	-11.9333
▁voter	-11.9333
▁dye	-11.9341
▁contributor	-11.9342
▁gamble	-11.9342
▁confined	-11.9342
▁Lisbon	-11.9342
▁transmission	-11.9342
heart	-11.9347
▁Large	-11.9358
▁Warning	-11.9358
▁hamstring	-11.9358
▁sergeant	-11.9358
▁ethical	-11.9361
[...]
